{"vocab": {"<|endoftext|>": 0, "<|unk|>": 1, "\n": 2, "\n\n": 3, "\n\n\n": 4, "\n\n\n\n": 5, "\n\n\n\n\n": 6, "\n\n\n\n\n\n\n": 7, "\n\n\n\n             ": 8, "\n\n\n ": 9, "\n\n\n  ": 10, "\n\n\n   ": 11, "\n\n\n    ": 12, "\n\n ": 13, "\n\n  ": 14, "\n\n   ": 15, "\n\n    ": 16, "\n\n     ": 17, "\n\n      ": 18, "\n\n       ": 19, "\n\n        ": 20, "\n\n         ": 21, "\n\n          ": 22, "\n\n           ": 23, "\n\n                    ": 24, "\n ": 25, "\n \n\n ": 26, "\n \n ": 27, "\n \n \n ": 28, "\n \n   ": 29, "\n \n      ": 30, "\n  ": 31, "\n   ": 32, "\n    ": 33, "\n     ": 34, "\n      ": 35, "\n       ": 36, "\n        ": 37, "\n         ": 38, "\n          ": 39, "\n           ": 40, "\n            ": 41, "\n              ": 42, "\r\n": 43, "\r\n\r\n": 44, "\r\n\r\n\r\n": 45, "\r\n\r\n\r\n\r\n": 46, "\r\n\r\n\r\n\r\n\r\n": 47, "\r\n\r\n     ": 48, "\r\n     ": 49, "\r\n      ": 50, "\r\n                 ": 51, "\r\n                                          ": 52, " ": 53, " \n": 54, " \n\n": 55, " \n ": 56, " \n \n ": 57, " \n \n \n": 58, " \n \n \n \n": 59, " \n  ": 60, " \n   ": 61, " \n    ": 62, "  ": 63, "  \n": 64, "  \n ": 65, "    ": 66, "     ": 67, "             ": 68, "               ": 69, "                ": 70, "                 ": 71, "                    \n \n     ": 72, "                        \n \n    ": 73, "                                                         \n \n \n": 74, "                                                          \n \n \n": 75, "                                                          \n \n  \n": 76, "                                                           \n \n \n": 77, "!": 78, "\"": 79, "$": 80, "&": 81, "'": 82, "(": 83, ")": 84, "*": 85, ",": 86, "-": 87, ".": 88, "0": 89, "1": 90, "2": 91, "3": 92, "4": 93, "5": 94, "6": 95, "7": 96, "8": 97, "9": 98, ":": 99, ";": 100, "</w>": 101, "?": 102, "A": 103, "B": 104, "C": 105, "D": 106, "E": 107, "F": 108, "G": 109, "H": 110, "I": 111, "J": 112, "K": 113, "L": 114, "M": 115, "N": 116, "O": 117, "P": 118, "Q": 119, "R": 120, "S": 121, "T": 122, "U": 123, "V": 124, "W": 125, "X": 126, "Y": 127, "Z": 128, "[": 129, "]": 130, "_": 131, "`": 132, "a": 133, "b": 134, "c": 135, "d": 136, "e": 137, "f": 138, "g": 139, "h": 140, "i": 141, "j": 142, "k": 143, "l": 144, "m": 145, "n": 146, "o": 147, "p": 148, "q": 149, "r": 150, "s": 151, "t": 152, "u": 153, "v": 154, "w": 155, "x": 156, "y": 157, "z": 158, "}": 159, "\u00e6": 160, "e</w>": 161, "d</w>": 162, "th": 163, "s</w>": 164, "t</w>": 165, "n</w>": 166, "er": 167, "y</w>": 168, "an": 169, "in": 170, "ou": 171, "o</w>": 172, "the</w>": 173, "and</w>": 174, "or": 175, "f</w>": 176, "ar": 177, "er</w>": 178, "ed</w>": 179, "l</w>": 180, "g</w>": 181, "to</w>": 182, "ha": 183, "of</w>": 184, "hi": 185, "en": 186, "ing</w>": 187, "re": 188, "on": 189, "m</w>": 190, "ll</w>": 191, "a</w>": 192, "he</w>": 193, "in</w>": 194, "at</w>": 195, "I</w>": 196, "h</w>": 197, "ow": 198, "on</w>": 199, "th</w>": 200, "as</w>": 201, "es</w>": 202, "st": 203, "the": 204, "wi": 205, "or</w>": 206, "me</w>": 207, "li": 208, "r</w>": 209, "st</w>": 210, "at": 211, "you": 212, "en</w>": 213, "se": 214, "is</w>": 215, "it</w>": 216, "se</w>": 217, "ea": 218, "ro": 219, "ly</w>": 220, "ld</w>": 221, "be": 222, "le</w>": 223, "no": 224, "ce</w>": 225, "sa": 226, "his</w>": 227, "gh": 228, "ri": 229, "an</w>": 230, "that</w>": 231, "ch</w>": 232, "ere</w>": 233, "nd</w>": 234, "ti": 235, "ve</w>": 236, "si": 237, "was</w>": 238, "you</w>": 239, "ow</w>": 240, "not</w>": 241, "le": 242, "oo": 243, "k</w>": 244, "ur": 245, "al": 246, "with</w>": 247, "ut</w>": 248, "wh": 249, "di": 250, "ear": 251, "her</w>": 252, "be</w>": 253, "ra": 254, "all</w>": 255, "co": 256, "la": 257, "un": 258, "ke</w>": 259, "for</w>": 260, "And</w>": 261, "ther</w>": 262, "ght</w>": 263, "ould</w>": 264, "ma": 265, "ne": 266, "my</w>": 267, "sh": 268, "ent</w>": 269, "ver": 270, "de": 271, "she</w>": 272, "him</w>": 273, "hat</w>": 274, "id</w>": 275, "ss</w>": 276, "sp": 277, "su": 278, "it": 279, "ac": 280, "had</w>": 281, "ir</w>": 282, "thou": 283, "for": 284, "so": 285, "ta": 286, "p</w>": 287, "one</w>": 288, "but</w>": 289, "ter</w>": 290, "et</w>": 291, "ir": 292, "ds</w>": 293, "el": 294, "so</w>": 295, "mi": 296, "said</w>": 297, "con": 298, "ver</w>": 299, "whi": 300, "ay</w>": 301, "Th": 302, "ab": 303, "are</w>": 304, "by</w>": 305, "ch": 306, "ts</w>": 307, "very</w>": 308, "rom</w>": 309, "this</w>": 310, "as": 311, "qu": 312, "The</w>": 313, "mo": 314, "mu": 315, "mp": 316, "pp": 317, "they</w>": 318, "now</w>": 319, "ers</w>": 320, "from</w>": 321, "mor": 322, "ell</w>": 323, "de</w>": 324, "have</w>": 325, "ge</w>": 326, "fa": 327, "ca": 328, "sel": 329, "ru": 330, "lo": 331, "tt": 332, "out</w>": 333, "them</w>": 334, "w</w>": 335, "ati": 336, "ood</w>": 337, "us</w>": 338, "gh</w>": 339, "me": 340, "sha": 341, "our</w>": 342, "their</w>": 343, "own</w>": 344, "am</w>": 345, "wor": 346, "will</w>": 347, "which</w>": 348, "were</w>": 349, "ue</w>": 350, "man</w>": 351, "ec": 352, "ga": 353, "ee": 354, "ad": 355, "no</w>": 356, "ing": 357, "fi": 358, "ho": 359, "po": 360, "ent": 361, "what</w>": 362, "rou": 363, "your</w>": 364, "bo": 365, "to": 366, "thing</w>": 367, "any</w>": 368, "ex": 369, "fu": 370, "ar</w>": 371, "al</w>": 372, "gre": 373, "vi": 374, "self</w>": 375, "do</w>": 376, "lea": 377, "ure</w>": 378, "ons</w>": 379, "ne</w>": 380, "ine</w>": 381, "ence</w>": 382, "fe</w>": 383, "more</w>": 384, "do": 385, "ted</w>": 386, "would</w>": 387, "sed</w>": 388, "ty</w>": 389, "ous</w>": 390, "per": 391, "But</w>": 392, "there</w>": 393, "shall</w>": 394, "pre": 395, "could</w>": 396, "led</w>": 397, "when</w>": 398, "ble</w>": 399, "ce": 400, "pro": 401, "ong</w>": 402, "ear</w>": 403, "we</w>": 404, "af": 405, "Wh": 406, "king</w>": 407, "par": 408, "ate</w>": 409, "gi": 410, "ni": 411, "loo": 412, "ci": 413, "pa": 414, "ant</w>": 415, "com": 416, "oun": 417, "tion</w>": 418, "ll": 419, "who</w>": 420, "thou</w>": 421, "ation</w>": 422, "ded</w>": 423, "of": 424, "Ca": 425, "wa": 426, "ance</w>": 427, "est</w>": 428, "way</w>": 429, "ck</w>": 430, "ry</w>": 431, "ven</w>": 432, "am": 433, "if</w>": 434, "ter": 435, "pon</w>": 436, "ard</w>": 437, "well</w>": 438, "sti": 439, "good</w>": 440, "tw": 441, "der</w>": 442, "thy</w>": 443, "other</w>": 444, "our": 445, "sh</w>": 446, "em": 447, "know</w>": 448, "go": 449, "up</w>": 450, "like</w>": 451, "been</w>": 452, "then</w>": 453, "ttle</w>": 454, "fore</w>": 455, "ings</w>": 456, "fe": 457, "come</w>": 458, "end</w>": 459, "some</w>": 460, "he": 461, "hea": 462, "pla": 463, "He</w>": 464, "see</w>": 465, "ked</w>": 466, "cu": 467, "hear": 468, "Wi": 469, "ose</w>": 470, "thee</w>": 471, "ever</w>": 472, "aga": 473, "da": 474, "than</w>": 475, "little</w>": 476, "rea": 477, "ser": 478, "ran": 479, "ved</w>": 480, "such</w>": 481, "fir": 482, "must</w>": 483, "did</w>": 484, "ind</w>": 485, "day</w>": 486, "Mar": 487, "Go": 488, "much</w>": 489, "To</w>": 490, "ou</w>": 491, "ys</w>": 492, "op": 493, "unto</w>": 494, "It</w>": 495, "ouse</w>": 496, "mb": 497, "should</w>": 498, "time</w>": 499, "dy</w>": 500, "thin": 501, "ey</w>": 502, "can</w>": 503, "der": 504, "sc": 505, "ment</w>": 506, "ding</w>": 507, "Mr</w>": 508, "te</w>": 509, "dre": 510, "les</w>": 511, "That</w>": 512, "tur": 513, "What</w>": 514, "into</w>": 515, "ning</w>": 516, "came</w>": 517, "te": 518, "most</w>": 519, "great</w>": 520, "ound</w>": 521, "every</w>": 522, "pe</w>": 523, "go</w>": 524, "du": 525, "upon</w>": 526, "sw": 527, "es": 528, "only</w>": 529, "b</w>": 530, "about</w>": 531, "chi": 532, "om</w>": 533, "lu": 534, "ves</w>": 535, "har": 536, "ling</w>": 537, "her": 538, "men</w>": 539, "how</w>": 540, "ving</w>": 541, "bu": 542, "these</w>": 543, "re</w>": 544, "ck": 545, "son</w>": 546, "say</w>": 547, "An": 548, "may</w>": 549, "ey": 550, "ge": 551, "She</w>": 552, "ju": 553, "let</w>": 554, "pi": 555, "ting</w>": 556, "comp": 557, "You</w>": 558, "ful</w>": 559, "house</w>": 560, "God</w>": 561, "rs</w>": 562, "able</w>": 563, "ten": 564, "ying</w>": 565, "never</w>": 566, "gu": 567, "ord</w>": 568, "arri": 569, "land</w>": 570, "dea": 571, "down</w>": 572, "old</w>": 573, "app": 574, "before</w>": 575, "sure</w>": 576, "lice</w>": 577, "In</w>": 578, "make</w>": 579, "ol": 580, "yet</w>": 581, "man": 582, "ness</w>": 583, "made</w>": 584, "where</w>": 585, "haue</w>": 586, "ssi": 587, "after</w>": 588, "too</w>": 589, "father</w>": 590, "Alice</w>": 591, "Mrs</w>": 592, "tu": 593, "ght": 594, "less</w>": 595, "thought</w>": 596, "ere": 597, "na": 598, "think</w>": 599, "ft</w>": 600, "A</w>": 601, "might</w>": 602, "ears</w>": 603, "wo": 604, "il": 605, "being</w>": 606, "For</w>": 607, "est": 608, "mm": 609, "tain</w>": 610, "ob": 611, "use</w>": 612, "first</w>": 613, "two</w>": 614, "han": 615, "pe": 616, "its</w>": 617, "Of</w>": 618, "night</w>": 619, "over</w>": 620, "plea": 621, "ite</w>": 622, "ally</w>": 623, "Qu": 624, "sing</w>": 625, "beg": 626, "again</w>": 627, "ree</w>": 628, "ven": 629, "ps</w>": 630, "long</w>": 631, "El": 632, "fer": 633, "ook</w>": 634, "vo": 635, "Ham</w>": 636, "though</w>": 637, "En": 638, "red</w>": 639, "went</w>": 640, "here</w>": 641, "fri": 642, "ect</w>": 643, "ye</w>": 644, "pri": 645, "ell": 646, "shi": 647, "ity</w>": 648, "No": 649, "happ": 650, "O</w>": 651, "hand</w>": 652, "kn": 653, "Mi": 654, "ks</w>": 655, "ely</w>": 656, "gra": 657, "gr": 658, "sin": 659, "bro": 660, "Hea": 661, "ned</w>": 662, "cre": 663, "mar": 664, "pt</w>": 665, "ger</w>": 666, "assi": 667, "tter</w>": 668, "coun": 669, "ess</w>": 670, "Lord</w>": 671, "King</w>": 672, "ged</w>": 673, "c</w>": 674, "E</w>": 675, "Bru": 676, "rough</w>": 677, "mes</w>": 678, "ated</w>": 679, "thout</w>": 680, "off</w>": 681, "imp": 682, "min": 683, "Be": 684, "tly</w>": 685, "ses</w>": 686, "new</w>": 687, "take</w>": 688, "body</w>": 689, "cal": 690, "can": 691, "They</w>": 692, "As</w>": 693, "him": 694, "jo": 695, "Co": 696, "lee": 697, "Mac": 698, "round</w>": 699, "away</w>": 700, "This</w>": 701, "If</w>": 702, "sent</w>": 703, "head</w>": 704, "mon": 705, "lar": 706, "kes</w>": 707, "sor": 708, "ster</w>": 709, "bra": 710, "So</w>": 711, "hu": 712, "some": 713, "lan": 714, "without</w>": 715, "youn": 716, "found</w>": 717, "herself</w>": 718, "tru": 719, "ady</w>": 720, "ms</w>": 721, "low": 722, "give</w>": 723, "sse</w>": 724, "Jo": 725, "men": 726, "brea": 727, "mat": 728, "tell</w>": 729, "With</w>": 730, "ced</w>": 731, "ough</w>": 732, "mother</w>": 733, "cer": 734, "sen": 735, "lou": 736, "bac": 737, "ried</w>": 738, "tra": 739, "nothing</w>": 740, "last</w>": 741, "ei": 742, "place</w>": 743, "seem": 744, "spea": 745, "dly</w>": 746, "light</w>": 747, "hold</w>": 748, "D</w>": 749, "war": 750, "ah</w>": 751, "ring</w>": 752, "life</w>": 753, "ways</w>": 754, "many</w>": 755, "has</w>": 756, "med</w>": 757, "My</w>": 758, "Su": 759, "those</w>": 760, "earth</w>": 761, "saw</w>": 762, "don</w>": 763, "ces</w>": 764, "through</w>": 765, "himself</w>": 766, "till</w>": 767, "spo": 768, "wat": 769, "wal": 770, "pu": 771, "ered</w>": 772, "shed</w>": 773, "How</w>": 774, "done</w>": 775, "right</w>": 776, "soon</w>": 777, "love</w>": 778, "el</w>": 779, "lt</w>": 780, "res</w>": 781, "dd": 782, "age</w>": 783, "just</w>": 784, "deed</w>": 785, "side</w>": 786, "ill</w>": 787, "Ha": 788, "tre": 789, "cause</w>": 790, "sur": 791, "ined</w>": 792, "while</w>": 793, "ice</w>": 794, "Ro": 795, "Oh</w>": 796, "see": 797, "stre": 798, "x</w>": 799, "eyes</w>": 800, "ore</w>": 801, "No</w>": 802, "row</w>": 803, "There</w>": 804, "Whi": 805, "heard</w>": 806, "name</w>": 807, "young</w>": 808, "hal": 809, "hath</w>": 810, "Sir</w>": 811, "eu": 812, "still</w>": 813, "ward</w>": 814, "years</w>": 815, "nor</w>": 816, "que": 817, "Cap": 818, "cei": 819, "Then</w>": 820, "sons</w>": 821, "rep": 822, "Li": 823, "look</w>": 824, "inter": 825, "same</w>": 826, "whom</w>": 827, "La": 828, "ins</w>": 829, "een</w>": 830, "my": 831, "row": 832, "His</w>": 833, "tal": 834, "Caes": 835, "dau": 836, "gen": 837, "We</w>": 838, "Heaven</w>": 839, "always</w>": 840, "des</w>": 841, "pra": 842, "clo": 843, "cont": 844, "char": 845, "quite</w>": 846, "Enter</w>": 847, "thers</w>": 848, "temp": 849, "ba": 850, "ken</w>": 851, "put</w>": 852, "full</w>": 853, "ls</w>": 854, "qui": 855, "ton</w>": 856, "att": 857, "once</w>": 858, "world</w>": 859, "woman</w>": 860, "sea</w>": 861, "fec": 862, "back</w>": 863, "sm": 864, "supp": 865, "get</w>": 866, "rin": 867, "ner</w>": 868, "ldre": 869, "ldren</w>": 870, "things</w>": 871, "fin": 872, "cor": 873, "ani": 874, "In": 875, "enough</w>": 876, "Miss</w>": 877, "dou": 878, "bea": 879, "wife</w>": 880, "oc": 881, "OR": 882, "comm": 883, "fo": 884, "face</w>": 885, "St": 886, "part</w>": 887, "both</w>": 888, "win": 889, "ssed</w>": 890, "called</w>": 891, "Why</w>": 892, "gar": 893, "mma</w>": 894, "bi": 895, "mine</w>": 896, "ors</w>": 897, "bl": 898, "When</w>": 899, "gether</w>": 900, "str": 901, "va": 902, "Ja": 903, "pen": 904, "slee": 905, "know": 906, "wha": 907, "Captain</w>": 908, "dis": 909, "ian": 910, "Now</w>": 911, "dra": 912, "ery</w>": 913, "dif": 914, "together</w>": 915, "inst</w>": 916, "pur": 917, "took</w>": 918, "children</w>": 919, "stan": 920, "pas": 921, "The": 922, "retur": 923, "room</w>": 924, "seemed</w>": 925, "Emma</w>": 926, "erefore</w>": 927, "hun": 928, "ghts</w>": 929, "cannot</w>": 930, "better</w>": 931, "under</w>": 932, "eep</w>": 933, "tus</w>": 934, "Cassi": 935, "three</w>": 936, "Anne</w>": 937, "indeed</w>": 938, "sou": 939, "eare</w>": 940, "Caesar</w>": 941, "ong": 942, "bor": 943, "ations</w>": 944, "answ": 945, "each</w>": 946, "us": 947, "TH": 948, "Marian": 949, "Marianne</w>": 950, "tting</w>": 951, "set</w>": 952, "All</w>": 953, "xt</w>": 954, "fre": 955, "tun": 956, "Po": 957, "ently</w>": 958, "car": 959, "em</w>": 960, "Abra": 961, "Ma": 962, "rest</w>": 963, "half</w>": 964, "gener": 965, "ise</w>": 966, "table</w>": 967, "lay</w>": 968, "ene</w>": 969, "left</w>": 970, "S</w>": 971, "brother</w>": 972, "dear</w>": 973, "mean": 974, "ature</w>": 975, "chan": 976, "dar": 977, "mer": 978, "try</w>": 979, "den</w>": 980, "with": 981, "ction</w>": 982, "il</w>": 983, "home</w>": 984, "vs</w>": 985, "word</w>": 986, "Fa": 987, "bur": 988, "stand</w>": 989, "dge</w>": 990, "int": 991, "another</w>": 992, "morning</w>": 993, "seen</w>": 994, "selfe</w>": 995, "ew</w>": 996, "thus</w>": 997, "sil": 998, "bed</w>": 999, "doub": 1000, "myself</w>": 1001, "ct</w>": 1002, "col": 1003, "elt</w>": 1004, "cob</w>": 1005, "vn": 1006, "ph": 1007, "Jacob</w>": 1008, "Mary</w>": 1009, "Harri": 1010, "Harriet</w>": 1011, "hor": 1012, "tow": 1013, "times</w>": 1014, "low</w>": 1015, "ople</w>": 1016, "lie": 1017, "ties</w>": 1018, "sub": 1019, "ER": 1020, "Ex": 1021, "cur": 1022, "rather</w>": 1023, "sit</w>": 1024, "spi": 1025, "far</w>": 1026, "van": 1027, "spec": 1028, "lied</w>": 1029, "mber</w>": 1030, "voice</w>": 1031, "worth</w>": 1032, "ORD</w>": 1033, "Where</w>": 1034, "high</w>": 1035, "does</w>": 1036, "heart</w>": 1037, "air</w>": 1038, "LORD</w>": 1039, "knew</w>": 1040, "Da": 1041, "against</w>": 1042, "who": 1043, "happy</w>": 1044, "Let</w>": 1045, "ends</w>": 1046, "cried</w>": 1047, "people</w>": 1048, "exc": 1049, "find</w>": 1050, "art</w>": 1051, "hands</w>": 1052, "looked</w>": 1053, "rought</w>": 1054, "sion</w>": 1055, "read</w>": 1056, "im": 1057, "sto": 1058, "ten</w>": 1059, "something</w>": 1060, "Elin": 1061, "Elinor</w>": 1062, "is": 1063, "sta": 1064, "ort</w>": 1065, "pass</w>": 1066, "won": 1067, "tions</w>": 1068, "consi": 1069, "because</w>": 1070, "mind</w>": 1071, "cy</w>": 1072, "Brutus</w>": 1073, "cour": 1074, "how": 1075, "going</w>": 1076, "hear</w>": 1077, "even</w>": 1078, "ory</w>": 1079, "ges</w>": 1080, "ghter</w>": 1081, "int</w>": 1082, "ight</w>": 1083, "fac": 1084, "So": 1085, "moment</w>": 1086, "sister</w>": 1087, "Who</w>": 1088, "ond</w>": 1089, "den": 1090, "foo": 1091, "next</w>": 1092, "feel": 1093, "forth</w>": 1094, "bla": 1095, "got</w>": 1096, "bar": 1097, "also</w>": 1098, "ig": 1099, "Lady</w>": 1100, "ship</w>": 1101, "poor</w>": 1102, "wan": 1103, "call</w>": 1104, "cke</w>": 1105, "told</w>": 1106, "Mo": 1107, "ous": 1108, "gro": 1109, "stood</w>": 1110, "eld</w>": 1111, "tain": 1112, "ious</w>": 1113, "ours</w>": 1114, "ham</w>": 1115, "mer</w>": 1116, "Bru</w>": 1117, "death</w>": 1118, "best</w>": 1119, "Or</w>": 1120, "brought</w>": 1121, "saying</w>": 1122, "ean</w>": 1123, "gone</w>": 1124, "dow": 1125, "else</w>": 1126, "Not</w>": 1127, "By</w>": 1128, "Come</w>": 1129, "tes</w>": 1130, "ss": 1131, "T</w>": 1132, "words</w>": 1133, "tri": 1134, "ened</w>": 1135, "lau": 1136, "Ar": 1137, "ful": 1138, "stri": 1139, "pow": 1140, "belie": 1141, "ph</w>": 1142, "began</w>": 1143, "gent": 1144, "stran": 1145, "far": 1146, "cul": 1147, "deli": 1148, "even": 1149, "having</w>": 1150, "ments</w>": 1151, "whose</w>": 1152, "wood</w>": 1153, "under": 1154, "per</w>": 1155, "dee": 1156, "haps</w>": 1157, "hon": 1158, "friend</w>": 1159, "door</w>": 1160, "hope</w>": 1161, "ul": 1162, "wr": 1163, "reas": 1164, "eet</w>": 1165, "days</w>": 1166, "cha": 1167, "ley</w>": 1168, "Re": 1169, "fee": 1170, "bre": 1171, "dist": 1172, "fami": 1173, "gave</w>": 1174, "foll": 1175, "ary</w>": 1176, "ble": 1177, "thre": 1178, "emp": 1179, "whole</w>": 1180, "present</w>": 1181, "lat": 1182, "ke": 1183, "felt</w>": 1184, "wish</w>": 1185, "work</w>": 1186, "ything</w>": 1187, "ire</w>": 1188, "hur": 1189, "ns</w>": 1190, "ought</w>": 1191, "ssion</w>": 1192, "Con": 1193, "smi": 1194, "ready</w>": 1195, "comfor": 1196, "fal": 1197, "Macb</w>": 1198, "ot</w>": 1199, "ee</w>": 1200, "off": 1201, "among</w>": 1202, "nei": 1203, "large</w>": 1204, "Jose": 1205, "Joseph</w>": 1206, "Is</w>": 1207, "yes</w>": 1208, "Which</w>": 1209, "Sp": 1210, "tage</w>": 1211, "ards</w>": 1212, "thi": 1213, "fle": 1214, "ini": 1215, "gla": 1216, "equ": 1217, "kind</w>": 1218, "Isa": 1219, "replied</w>": 1220, "desi": 1221, "u</w>": 1222, "differ": 1223, "ele": 1224, "ste</w>": 1225, "cir": 1226, "exp": 1227, "nu": 1228, "els</w>": 1229, "betw": 1230, "ach": 1231, "true</w>": 1232, "within</w>": 1233, "Abraham</w>": 1234, "au": 1235, "ping</w>": 1236, "hel": 1237, "HA": 1238, "selves</w>": 1239, "near</w>": 1240, "sort</w>": 1241, "since</w>": 1242, "ze</w>": 1243, "recei": 1244, "few</w>": 1245, "yed</w>": 1246, "lity</w>": 1247, "ging</w>": 1248, "field</w>": 1249, "child</w>": 1250, "vpon</w>": 1251, "ches</w>": 1252, "rie": 1253, "stea": 1254, "daughter</w>": 1255, "evening</w>": 1256, "dan": 1257, "fire</w>": 1258, "Ad": 1259, "looking</w>": 1260, "however</w>": 1261, "reme": 1262, "sters</w>": 1263, "hast</w>": 1264, "dred</w>": 1265, "sk": 1266, "hn</w>": 1267, "Jem</w>": 1268, "Char": 1269, "ched</w>": 1270, "ake</w>": 1271, "cro": 1272, "why</w>": 1273, "sight</w>": 1274, "atten": 1275, "John</w>": 1276, "Went": 1277, "Wentworth</w>": 1278, "mou": 1279, "qua": 1280, "ether</w>": 1281, "ur</w>": 1282, "cou": 1283, "ff": 1284, "oh</w>": 1285, "bring</w>": 1286, "Har": 1287, "ering</w>": 1288, "ood": 1289, "ough": 1290, "Do</w>": 1291, "stru": 1292, "ew": 1293, "tty</w>": 1294, "From</w>": 1295, "want</w>": 1296, "money</w>": 1297, "parti": 1298, "known</w>": 1299, "contin": 1300, "unt</w>": 1301, "therefore</w>": 1302, "ates</w>": 1303, "Y</w>": 1304, "cl": 1305, "Ham": 1306, "vent": 1307, "perhaps</w>": 1308, "ues</w>": 1309, "eng": 1310, "none</w>": 1311, "sati": 1312, "stra": 1313, "leave</w>": 1314, "dead</w>": 1315, "Hi": 1316, "least</w>": 1317, "live</w>": 1318, "ma</w>": 1319, "br": 1320, "Well</w>": 1321, "ement</w>": 1322, "On</w>": 1323, "late</w>": 1324, "uen</w>": 1325, "them": 1326, "almost</w>": 1327, "ching</w>": 1328, "At</w>": 1329, "between</w>": 1330, "ones</w>": 1331, "cla": 1332, "cks</w>": 1333, "ct": 1334, "ssible</w>": 1335, "satis": 1336, "ber": 1337, "bit</w>": 1338, "evi": 1339, "Dash": 1340, "dire": 1341, "ders</w>": 1342, "Bar": 1343, "Sha": 1344, "open</w>": 1345, "ited</w>": 1346, "sted</w>": 1347, "lon": 1348, "oni": 1349, "matter</w>": 1350, "ars</w>": 1351, "ask</w>": 1352, "cho": 1353, "appear": 1354, "che": 1355, "eye</w>": 1356, "great": 1357, "dro": 1358, "questi": 1359, "sweet</w>": 1360, "ER</w>": 1361, "Wal": 1362, "din": 1363, "alone</w>": 1364, "kin": 1365, "speak</w>": 1366, "boy</w>": 1367, "beau": 1368, "eat</w>": 1369, "ject</w>": 1370, "Nor</w>": 1371, "either</w>": 1372, "ima": 1373, "consider": 1374, "gy": 1375, "san</w>": 1376, "fall</w>": 1377, "wee": 1378, "ui": 1379, "fortun": 1380, "medi": 1381, "owed</w>": 1382, "gs</w>": 1383, "sat</w>": 1384, "Susan</w>": 1385, "comes</w>": 1386, "course</w>": 1387, "For": 1388, "Cassi</w>": 1389, "wri": 1390, "hundred</w>": 1391, "ad</w>": 1392, "ately</w>": 1393, "cle": 1394, "Her</w>": 1395, "family</w>": 1396, "Ile</w>": 1397, "stu": 1398, "sts</w>": 1399, "rits</w>": 1400, "night": 1401, "coming</w>": 1402, "ine": 1403, "believe</w>": 1404, "ony</w>": 1405, "val": 1406, "answer</w>": 1407, "ating</w>": 1408, "fla": 1409, "draw": 1410, "doubt</w>": 1411, "water</w>": 1412, "affec": 1413, "early</w>": 1414, "minu": 1415, "cap": 1416, "Thou</w>": 1417, "cep": 1418, "i</w>": 1419, "atur": 1420, "ines</w>": 1421, "ously</w>": 1422, "ghters</w>": 1423, "stress</w>": 1424, "ellow</w>": 1425, "fur": 1426, "dow</w>": 1427, "behold</w>": 1428, "fully</w>": 1429, "given</w>": 1430, "Egy": 1431, "gir": 1432, "feel</w>": 1433, "fl": 1434, "speake</w>": 1435, "thir": 1436, "Hell</w>": 1437, "run": 1438, "ths</w>": 1439, "tle</w>": 1440, "ever": 1441, "Dashwood</w>": 1442, "Lu": 1443, "heere</w>": 1444, "sides</w>": 1445, "peri": 1446, "ingly</w>": 1447, "Will": 1448, "marri": 1449, "bir": 1450, "others</w>": 1451, "lived</w>": 1452, "daughters</w>": 1453, "fav": 1454, "pray</w>": 1455, "power</w>": 1456, "shalt</w>": 1457, "small</w>": 1458, "Ed": 1459, "born</w>": 1460, "hand": 1461, "Gi": 1462, "Sou": 1463, "Father</w>": 1464, "ther": 1465, "sting</w>": 1466, "Hamlet</w>": 1467, "deal</w>": 1468, "ry": 1469, "wel": 1470, "Op": 1471, "pres": 1472, "person</w>": 1473, "band</w>": 1474, "flow": 1475, "kee": 1476, "obser": 1477, "pl": 1478, "wea": 1479, "Yet</w>": 1480, "lling</w>": 1481, "fied</w>": 1482, "whether</w>": 1483, "cted</w>": 1484, "Queen</w>": 1485, "circu": 1486, "dies</w>": 1487, "beth</w>": 1488, "over": 1489, "your": 1490, "tainly</w>": 1491, "really</w>": 1492, "Knight": 1493, "Elton</w>": 1494, "Quee": 1495, "Queeque": 1496, "Queequeg</w>": 1497, "end": 1498, "change</w>": 1499, "Here</w>": 1500, "flo": 1501, "eli": 1502, "themselves</w>": 1503, "joy</w>": 1504, "ide": 1505, "Willough": 1506, "Willoughby</w>": 1507, "Lou": 1508, "Al": 1509, "sleep</w>": 1510, "often</w>": 1511, "Hor</w>": 1512, "ove</w>": 1513, "turned</w>": 1514, "Phar": 1515, "N</w>": 1516, "Charles</w>": 1517, "ats</w>": 1518, "towards</w>": 1519, "drin": 1520, "Di": 1521, "ane</w>": 1522, "eri": 1523, "ength</w>": 1524, "dence</w>": 1525, "cious</w>": 1526, "inv": 1527, "keep</w>": 1528, "four</w>": 1529, "tion": 1530, "Knightley</w>": 1531, "sir</w>": 1532, "manner</w>": 1533, "Do": 1534, "ground</w>": 1535, "West": 1536, "surpri": 1537, "passed</w>": 1538, "sun</w>": 1539, "Mus": 1540, "Musgro": 1541, "sse": 1542, "dri": 1543, "irit</w>": 1544, "acqua": 1545, "ren": 1546, "return</w>": 1547, "pretty</w>": 1548, "continu": 1549, "vp</w>": 1550, "ounds</w>": 1551, "Will</w>": 1552, "taken</w>": 1553, "Our</w>": 1554, "busin": 1555, "ended</w>": 1556, "gl": 1557, "fair</w>": 1558, "country</w>": 1559, "Phara": 1560, "Pharaoh</w>": 1561, "sy</w>": 1562, "doe</w>": 1563, "Per": 1564, "reason</w>": 1565, "dst</w>": 1566, "natur": 1567, "visi": 1568, "dness</w>": 1569, "lord</w>": 1570, "jec": 1571, "fine</w>": 1572, "ghty</w>": 1573, "eath</w>": 1574, "secon": 1575, "arm</w>": 1576, "friends</w>": 1577, "vil": 1578, "adm": 1579, "leman</w>": 1580, "soul</w>": 1581, "year</w>": 1582, "sig": 1583, "These</w>": 1584, "walk</w>": 1585, "strong</w>": 1586, "gg": 1587, "One</w>": 1588, "dest</w>": 1589, "She": 1590, "stance</w>": 1591, "city</w>": 1592, "seven</w>": 1593, "obli": 1594, "mean</w>": 1595, "Your</w>": 1596, "owing</w>": 1597, "please</w>": 1598, "foot</w>": 1599, "inted</w>": 1600, "sell</w>": 1601, "sol": 1602, "cea": 1603, "circum": 1604, "pped</w>": 1605, "mistress</w>": 1606, "bad</w>": 1607, "blood</w>": 1608, "strange</w>": 1609, "fell</w>": 1610, "disp": 1611, "Yes</w>": 1612, "Hor": 1613, "enty</w>": 1614, "dom</w>": 1615, "play</w>": 1616, "inging</w>": 1617, "ste": 1618, "certainly</w>": 1619, "yourself</w>": 1620, "spect</w>": 1621, "Cassius</w>": 1622, "tou": 1623, "Bo": 1624, "high": 1625, "De": 1626, "immedi": 1627, "fast</w>": 1628, "stro": 1629, "ran</w>": 1630, "accoun": 1631, "hus": 1632, "attle</w>": 1633, "used</w>": 1634, "aw": 1635, "rema": 1636, "Their</w>": 1637, "visit</w>": 1638, "Can": 1639, "thoughts</w>": 1640, "agre": 1641, "Fran": 1642, "scre": 1643, "curi": 1644, "ety</w>": 1645, "garden</w>": 1646, "ari": 1647, "turn</w>": 1648, "cra": 1649, "tis</w>": 1650, "wards</w>": 1651, "ledge</w>": 1652, "added</w>": 1653, "THE</w>": 1654, "opp": 1655, "lady</w>": 1656, "ably</w>": 1657, "sense</w>": 1658, "anything</w>": 1659, "Walter</w>": 1660, "Ant": 1661, "eace</w>": 1662, "thr": 1663, "enti": 1664, "pose</w>": 1665, "lish</w>": 1666, "ners</w>": 1667, "Egypt</w>": 1668, "asked</w>": 1669, "fan": 1670, "loue</w>": 1671, "second</w>": 1672, "meet</w>": 1673, "pleasure</w>": 1674, "rying</w>": 1675, "lik": 1676, "Tur": 1677, "oured</w>": 1678, "lled</w>": 1679, "lin</w>": 1680, "idea</w>": 1681, "hou": 1682, "cold</w>": 1683, "glad</w>": 1684, "fear</w>": 1685, "wonder</w>": 1686, "lest</w>": 1687, "close</w>": 1688, "Nor": 1689, "carri": 1690, "ool</w>": 1691, "ff</w>": 1692, "ac</w>": 1693, "nal</w>": 1694, "heare</w>": 1695, "nee": 1696, "nesse</w>": 1697, "common</w>": 1698, "ming</w>": 1699, "shou": 1700, "lost</w>": 1701, "spee": 1702, "opini": 1703, "Fi": 1704, "suf": 1705, "xi": 1706, "star": 1707, "clu": 1708, "ag": 1709, "sand</w>": 1710, "lies</w>": 1711, "ben": 1712, "desc": 1713, "ans</w>": 1714, "shes</w>": 1715, "disa": 1716, "colle": 1717, "general</w>": 1718, "Weston</w>": 1719, "Me": 1720, "remember</w>": 1721, "cri": 1722, "dent</w>": 1723, "ssing</w>": 1724, "Wood": 1725, "hardly</w>": 1726, "feet</w>": 1727, "tive</w>": 1728, "Isaac</w>": 1729, "business</w>": 1730, "whale</w>": 1731, "hard</w>": 1732, "Exe": 1733, "He": 1734, "por": 1735, "raid</w>": 1736, "irs</w>": 1737, "ining</w>": 1738, "husband</w>": 1739, "moun": 1740, "Un": 1741, "Esa": 1742, "Esau</w>": 1743, "feelings</w>": 1744, "Fri": 1745, "giue</w>": 1746, "ang": 1747, "mouth</w>": 1748, "owne</w>": 1749, "Night</w>": 1750, "morrow</w>": 1751, "Thy</w>": 1752, "along</w>": 1753, "twi": 1754, "held</w>": 1755, "fai": 1756, "ped</w>": 1757, "ef": 1758, "cing</w>": 1759, "ron": 1760, "itself</w>": 1761, "brethre": 1762, "brethren</w>": 1763, "hour</w>": 1764, "Frank": 1765, "ures</w>": 1766, "ets</w>": 1767, "Exeunt</w>": 1768, "Antony</w>": 1769, "Ban": 1770, "dispo": 1771, "stay</w>": 1772, "after": 1773, "pes</w>": 1774, "mul": 1775, "list": 1776, "als</w>": 1777, "short</w>": 1778, "bare</w>": 1779, "cot": 1780, "sudd": 1781, "Franklin</w>": 1782, "Be</w>": 1783, "doth</w>": 1784, "againe</w>": 1785, "thinke</w>": 1786, "cen": 1787, "question</w>": 1788, "ny</w>": 1789, "enga": 1790, "taste</w>": 1791, "loud</w>": 1792, "uni": 1793, "appro": 1794, "certain</w>": 1795, "tone</w>": 1796, "Woodhouse</w>": 1797, "dle</w>": 1798, "trou": 1799, "feare</w>": 1800, "Shall</w>": 1801, "state</w>": 1802, "yond</w>": 1803, "bli": 1804, "making</w>": 1805, "cked</w>": 1806, "imag": 1807, "Eng": 1808, "died</w>": 1809, "posse": 1810, "dering</w>": 1811, "afraid</w>": 1812, "help</w>": 1813, "pleased</w>": 1814, "TER</w>": 1815, "Hon": 1816, "ghb": 1817, "spoke</w>": 1818, "fellow</w>": 1819, "die</w>": 1820, "Ear": 1821, "tch</w>": 1822, "lth</w>": 1823, "wise</w>": 1824, "lli": 1825, "bri": 1826, "beh": 1827, "Du": 1828, "longer</w>": 1829, "seeing</w>": 1830, "dark</w>": 1831, "vely</w>": 1832, "sisters</w>": 1833, "OU": 1834, "suppose</w>": 1835, "ster": 1836, "uer</w>": 1837, "become</w>": 1838, "Ch": 1839, "formed</w>": 1840, "party</w>": 1841, "Thus</w>": 1842, "care</w>": 1843, "beyond</w>": 1844, "boo": 1845, "stor": 1846, "pleas": 1847, "serv": 1848, "ef</w>": 1849, "CHA": 1850, "ney</w>": 1851, "ki": 1852, "swi": 1853, "rely</w>": 1854, "different</w>": 1855, "Ta": 1856, "dare</w>": 1857, "ents</w>": 1858, "spake</w>": 1859, "answered</w>": 1860, "ught</w>": 1861, "summ": 1862, "fru": 1863, "fect</w>": 1864, "deep</w>": 1865, "plain</w>": 1866, "iness</w>": 1867, "tal</w>": 1868, "harpo": 1869, "Lea": 1870, "Wor": 1871, "itu": 1872, "ented</w>": 1873, "ger": 1874, "ening</w>": 1875, "Par": 1876, "mighty</w>": 1877, "gn": 1878, "ach</w>": 1879, "indu": 1880, "compani": 1881, "usu": 1882, "above</w>": 1883, "five</w>": 1884, "servan": 1885, "servants</w>": 1886, "ired</w>": 1887, "equal</w>": 1888, "advan": 1889, "neighb": 1890, "talk</w>": 1891, "Se": 1892, "promi": 1893, "sage</w>": 1894, "past</w>": 1895, "cking</w>": 1896, "Ab": 1897, "bly</w>": 1898, "sin</w>": 1899, "flu": 1900, "repe": 1901, "master</w>": 1902, "cover": 1903, "won</w>": 1904, "gentleman</w>": 1905, "Lawr": 1906, "Lawrence</w>": 1907, "Noble</w>": 1908, "free</w>": 1909, "bright</w>": 1910, "sometimes</w>": 1911, "shing</w>": 1912, "lear": 1913, "story</w>": 1914, "tran": 1915, "begat</w>": 1916, "xed</w>": 1917, "real</w>": 1918, "girl</w>": 1919, "ters</w>": 1920, "follow</w>": 1921, "grace</w>": 1922, "downe</w>": 1923, "form</w>": 1924, "fter</w>": 1925, "atter</w>": 1926, "eene</w>": 1927, "im</w>": 1928, "Mes": 1929, "women</w>": 1930, "Ba": 1931, "makes</w>": 1932, "deser": 1933, "sli": 1934, "inning</w>": 1935, "key</w>": 1936, "tten</w>": 1937, "delight</w>": 1938, "behind</w>": 1939, "tree</w>": 1940, "remo": 1941, "ows</w>": 1942, "tiful</w>": 1943, "vain</w>": 1944, "arms</w>": 1945, "wanted</w>": 1946, "ler</w>": 1947, "pit": 1948, "Gra": 1949, "Good</w>": 1950, "hum": 1951, "Earth</w>": 1952, "point</w>": 1953, "lls</w>": 1954, "secre": 1955, "neither</w>": 1956, "Who": 1957, "thousand</w>": 1958, "possible</w>": 1959, "ker</w>": 1960, "Lab": 1961, "dered</w>": 1962, "osi": 1963, "white</w>": 1964, "fra": 1965, "sun": 1966, "Behold</w>": 1967, "bear</w>": 1968, "appeared</w>": 1969, "ws</w>": 1970, "letter</w>": 1971, "dn</w>": 1972, "worse</w>": 1973, "where": 1974, "Man</w>": 1975, "ands</w>": 1976, "ens</w>": 1977, "zz": 1978, "thine</w>": 1979, "ies</w>": 1980, "silent</w>": 1981, "immediately</w>": 1982, "requ": 1983, "excell": 1984, "youth</w>": 1985, "comple": 1986, "knowledge</w>": 1987, "exce": 1988, "perfec": 1989, "Hen": 1990, "living</w>": 1991, "gold</w>": 1992, "servant</w>": 1993, "CHAP": 1994, "CHAPTER</w>": 1995, "atures</w>": 1996, "tation</w>": 1997, "son": 1998, "Le": 1999, "Si": 2000, "than": 2001, "IN": 2002, "sation</w>": 2003, "feeling</w>": 2004, "fortune</w>": 2005, "Edward</w>": 2006, "conver": 2007, "acquaint": 2008, "Feli": 2009, "Felix</w>": 2010, "Elli": 2011, "disc": 2012, "Such</w>": 2013, "Are</w>": 2014, "yn": 2015, "spirits</w>": 2016, "sequ": 2017, "solu": 2018, "twenty</w>": 2019, "ints</w>": 2020, "prou": 2021, "Nature</w>": 2022, "suc": 2023, "rance</w>": 2024, "Qu</w>": 2025, "zed</w>": 2026, "account</w>": 2027, "law</w>": 2028, "eable</w>": 2029, "cons": 2030, "returned</w>": 2031, "talking</w>": 2032, "around</w>": 2033, "cross</w>": 2034, "AN": 2035, "Elliot</w>": 2036, "Jon": 2037, "Pri": 2038, "mb</w>": 2039, "Tis</w>": 2040, "mee": 2041, "Cor": 2042, "Gre": 2043, "ecu": 2044, "dread": 2045, "goes</w>": 2046, "nature</w>": 2047, "Ser": 2048, "grow</w>": 2049, "rise</w>": 2050, "rup": 2051, "Pol": 2052, "iting</w>": 2053, "nor": 2054, "sho": 2055, "doing</w>": 2056, "soci": 2057, "mea": 2058, "seed</w>": 2059, "evil</w>": 2060, "phon</w>": 2061, "emplo": 2062, "acquaintance</w>": 2063, "Jonah</w>": 2064, "Pro": 2065, "euer</w>": 2066, "pping</w>": 2067, "dg": 2068, "fic": 2069, "mur": 2070, "quar": 2071, "cular</w>": 2072, "tent</w>": 2073, "fore": 2074, "Laer</w>": 2075, "expre": 2076, "ort": 2077, "concer": 2078, "maid</w>": 2079, "perfect</w>": 2080, "Macbeth</w>": 2081, "heaven</w>": 2082, "cattle</w>": 2083, "book</w>": 2084, "charac": 2085, "remar": 2086, "handsome</w>": 2087, "subject</w>": 2088, "Mu": 2089, "direc": 2090, "esse</w>": 2091, "toward</w>": 2092, "Did</w>": 2093, "silence</w>": 2094, "opinion</w>": 2095, "company</w>": 2096, "comfort</w>": 2097, "ile</w>": 2098, "dec": 2099, "reg": 2100, "rose</w>": 2101, "sch": 2102, "Sar": 2103, "taking</w>": 2104, "cal</w>": 2105, "orm": 2106, "wild</w>": 2107, "respec": 2108, "yl": 2109, "window</w>": 2110, "Abram</w>": 2111, "Musgrove</w>": 2112, "Turtle</w>": 2113, "lesse</w>": 2114, "leaue</w>": 2115, "bloo": 2116, "Cha": 2117, "fit</w>": 2118, "attemp": 2119, "lla</w>": 2120, "exac": 2121, "kept</w>": 2122, "dream</w>": 2123, "Is": 2124, "speci": 2125, "Macd</w>": 2126, "teen</w>": 2127, "conv": 2128, "sever": 2129, "ber</w>": 2130, "peace</w>": 2131, "shew</w>": 2132, "breath</w>": 2133, "ghted</w>": 2134, "truth</w>": 2135, "ongs</w>": 2136, "sound</w>": 2137, "wrong</w>": 2138, "crow": 2139, "scar": 2140, "allow": 2141, "thence</w>": 2142, "occa": 2143, "resi": 2144, "shar": 2145, "pleasant</w>": 2146, "woo": 2147, "laugh": 2148, "eness</w>": 2149, "guine": 2150, "ladies</w>": 2151, "character</w>": 2152, "rable</w>": 2153, "thinking</w>": 2154, "offer": 2155, "hol": 2156, "send</w>": 2157, "bid</w>": 2158, "cle</w>": 2159, "afterwards</w>": 2160, "Though</w>": 2161, "gel</w>": 2162, "plan": 2163, "F</w>": 2164, "Col": 2165, "Ophe</w>": 2166, "sail": 2167, "deci": 2168, "green</w>": 2169, "fini": 2170, "vy</w>": 2171, "usual</w>": 2172, "tic</w>": 2173, "perfectly</w>": 2174, "cottage</w>": 2175, "Mart": 2176, "Mock</w>": 2177, "east</w>": 2178, "ask": 2179, "ast</w>": 2180, "Vn": 2181, "seem</w>": 2182, "we": 2183, "noti": 2184, "married</w>": 2185, "case</w>": 2186, "Rus": 2187, "flesh</w>": 2188, "villa": 2189, "ture</w>": 2190, "black</w>": 2191, "continued</w>": 2192, "walked</w>": 2193, "jour": 2194, "ford</w>": 2195, "pain</w>": 2196, "means</w>": 2197, "board</w>": 2198, "diffi": 2199, "obliged</w>": 2200, "Isabe": 2201, "Isabella</w>": 2202, "Hatter</w>": 2203, "Gry": 2204, "Gryphon</w>": 2205, "expec": 2206, "grat": 2207, "cee": 2208, "need</w>": 2209, "welcome</w>": 2210, "standing</w>": 2211, "ash</w>": 2212, "pay</w>": 2213, "itted</w>": 2214, "soli": 2215, "pul": 2216, "enly</w>": 2217, "mil": 2218, "ouri": 2219, "interest</w>": 2220, "blessed</w>": 2221, "tual</w>": 2222, "Cana": 2223, "understand</w>": 2224, "Laban</w>": 2225, "Russell</w>": 2226, "ius</w>": 2227, "oft</w>": 2228, "ongue</w>": 2229, "run</w>": 2230, "looke</w>": 2231, "shoul": 2232, "nam": 2233, "greater</w>": 2234, "Heauen</w>": 2235, "besides</w>": 2236, "hither</w>": 2237, "stant</w>": 2238, "regard</w>": 2239, "praise</w>": 2240, "roo": 2241, "sorry</w>": 2242, "host</w>": 2243, "gate</w>": 2244, "out": 2245, "reig": 2246, "vice</w>": 2247, "fol": 2248, "Cro": 2249, "getting</w>": 2250, "tely</w>": 2251, "waters</w>": 2252, "oned</w>": 2253, "hair</w>": 2254, "town</w>": 2255, "Nay</w>": 2256, "ddle</w>": 2257, "kne": 2258, "tenance</w>": 2259, "marry</w>": 2260, "nes</w>": 2261, "degre": 2262, "desire</w>": 2263, "Smi": 2264, "atch</w>": 2265, "nece": 2266, "satisfied</w>": 2267, "After</w>": 2268, "Sa": 2269, "hill</w>": 2270, "top</w>": 2271, "excellent</w>": 2272, "one": 2273, "sitting</w>": 2274, "bread</w>": 2275, "Bil": 2276, "leaves</w>": 2277, "Ju": 2278, "beautiful</w>": 2279, "mira": 2280, "seems</w>": 2281, "cheer": 2282, "comfortable</w>": 2283, "March</w>": 2284, "Sh": 2285, "ami": 2286, "met</w>": 2287, "z</w>": 2288, "purpose</w>": 2289, "consequ": 2290, "eight</w>": 2291, "bs</w>": 2292, "smo": 2293, "sake</w>": 2294, "tried</w>": 2295, "coura": 2296, "obe": 2297, "bit": 2298, "minutes</w>": 2299, "show</w>": 2300, "command</w>": 2301, "desp": 2302, "disapp": 2303, "forward</w>": 2304, "multi": 2305, "yment</w>": 2306, "hood</w>": 2307, "prin": 2308, "rai": 2309, "loved</w>": 2310, "duced</w>": 2311, "wished</w>": 2312, "recolle": 2313, "attention</w>": 2314, "land": 2315, "any": 2316, "natural</w>": 2317, "Martin</w>": 2318, "safe</w>": 2319, "view</w>": 2320, "touch</w>": 2321, "order</w>": 2322, "passi": 2323, "further</w>": 2324, "cry</w>": 2325, "tie</w>": 2326, "ooke</w>": 2327, "heads</w>": 2328, "sla": 2329, "sensi": 2330, "rous</w>": 2331, "Some</w>": 2332, "Luci": 2333, "voy": 2334, "refu": 2335, "dream": 2336, "what": 2337, "assure</w>": 2338, "particular</w>": 2339, "depen": 2340, "L</w>": 2341, "ination</w>": 2342, "sul": 2343, "pursu": 2344, "comman": 2345, "likely</w>": 2346, "male</w>": 2347, "manners</w>": 2348, "pill": 2349, "opened</w>": 2350, "justi": 2351, "vine</w>": 2352, "liue</w>": 2353, "euery</w>": 2354, "yle</w>": 2355, "gentle</w>": 2356, "temper</w>": 2357, "ounded</w>": 2358, "easi": 2359, "Till</w>": 2360, "smile</w>": 2361, "ease</w>": 2362, "enn": 2363, "Hear": 2364, "kno": 2365, "bel": 2366, "six": 2367, "impo": 2368, "aff": 2369, "speech</w>": 2370, "deter": 2371, "mple</w>": 2372, "cket</w>": 2373, "draw</w>": 2374, "While</w>": 2375, "OF</w>": 2376, "Pol</w>": 2377, "Ah</w>": 2378, "neck</w>": 2379, "Rosse</w>": 2380, "sett": 2381, "bal": 2382, "mp</w>": 2383, "persu": 2384, "says</w>": 2385, "dinner</w>": 2386, "ON": 2387, "conversation</w>": 2388, "attach": 2389, "Hart": 2390, "Hartfield</w>": 2391, "Gods</w>": 2392, "Go</w>": 2393, "Coun": 2394, "Ant</w>": 2395, "Can</w>": 2396, "Gu": 2397, "wide</w>": 2398, "spirit</w>": 2399, "soft</w>": 2400, "wait</w>": 2401, "Spi": 2402, "wake</w>": 2403, "fresh</w>": 2404, "reh": 2405, "bury</w>": 2406, "road</w>": 2407, "mn</w>": 2408, "beginning</w>": 2409, "turning</w>": 2410, "exactly</w>": 2411, "length</w>": 2412, "hel</w>": 2413, "spring</w>": 2414, "lie</w>": 2415, "ade</w>": 2416, "cient</w>": 2417, "imed</w>": 2418, "stead</w>": 2419, "covered</w>": 2420, "Eli": 2421, "serve</w>": 2422, "shore</w>": 2423, "giving</w>": 2424, "received</w>": 2425, "mortal</w>": 2426, "song</w>": 2427, "sky</w>": 2428, "happiness</w>": 2429, "everything</w>": 2430, "itude</w>": 2431, "eares</w>": 2432, "See</w>": 2433, "Man": 2434, "difference</w>": 2435, "Pal": 2436, "orn</w>": 2437, "ha</w>": 2438, "already</w>": 2439, "ece</w>": 2440, "Reu": 2441, "honour</w>": 2442, "rich</w>": 2443, "ily</w>": 2444, "Mother</w>": 2445, "Nothing</w>": 2446, "dam": 2447, "grie": 2448, "there": 2449, "England</w>": 2450, "On": 2451, "ries</w>": 2452, "lands</w>": 2453, "ynch</w>": 2454, "screw</w>": 2455, "Rab": 2456, "poli": 2457, "hours</w>": 2458, "village</w>": 2459, "Kell": 2460, "Tra": 2461, "Tru": 2462, "proper</w>": 2463, "cru": 2464, "cli": 2465, "May</w>": 2466, "borne</w>": 2467, "worthy</w>": 2468, "hee</w>": 2469, "wre": 2470, "Giue</w>": 2471, "read": 2472, "gli": 2473, "rown</w>": 2474, "kill</w>": 2475, "fif": 2476, "fret</w>": 2477, "dition</w>": 2478, "satisfac": 2479, "inten": 2480, "Ben": 2481, "bow": 2482, "tters</w>": 2483, "sorrow</w>": 2484, "charge</w>": 2485, "bound</w>": 2486, "sition</w>": 2487, "viol": 2488, "countenance</w>": 2489, "meaning</w>": 2490, "Chri": 2491, "destro": 2492, "drink</w>": 2493, "lo</w>": 2494, "inti": 2495, "six</w>": 2496, "iled</w>": 2497, "ceived</w>": 2498, "summer</w>": 2499, "gul": 2500, "superi": 2501, "vers</w>": 2502, "miral</w>": 2503, "enjo": 2504, "dance</w>": 2505, "Smith</w>": 2506, "Kellynch</w>": 2507, "tta</w>": 2508, "tin": 2509, "shew": 2510, "sing": 2511, "Like</w>": 2512, "Would</w>": 2513, "ap": 2514, "dark": 2515, "mad</w>": 2516, "fond</w>": 2517, "dwell</w>": 2518, "cti": 2519, "prob": 2520, "minute</w>": 2521, "meant</w>": 2522, "High": 2523, "tains</w>": 2524, "Rac": 2525, "Barbar": 2526, "za": 2527, "ems</w>": 2528, "cular": 2529, "fish</w>": 2530, "talked</w>": 2531, "war</w>": 2532, "veni": 2533, "vel": 2534, "tears</w>": 2535, "val</w>": 2536, "impro": 2537, "conne": 2538, "Rabbit</w>": 2539, "Ac": 2540, "yre</w>": 2541, "Spirit</w>": 2542, "selues</w>": 2543, "laugh</w>": 2544, "cording</w>": 2545, "seat</w>": 2546, "Spirits</w>": 2547, "strength</w>": 2548, "abi": 2549, "secret</w>": 2550, "sses</w>": 2551, "lemen</w>": 2552, "health</w>": 2553, "Had</w>": 2554, "chance</w>": 2555, "drawing</w>": 2556, "tude</w>": 2557, "Bran": 2558, "appear</w>": 2559, "AR": 2560, "admir": 2561, "excla": 2562, "New</w>": 2563, "import": 2564, "due</w>": 2565, "drew</w>": 2566, "stle</w>": 2567, "mbling</w>": 2568, "grass</w>": 2569, "Canaan</w>": 2570, "Pele": 2571, "Peleg</w>": 2572, "served</w>": 2573, "Rachel</w>": 2574, "week</w>": 2575, "pher": 2576, "vent</w>": 2577, "curious</w>": 2578, "LE</w>": 2579, "repeated</w>": 2580, "Pom": 2581, "Pomfret</w>": 2582, "kscrew</w>": 2583, "harpoone": 2584, "beare</w>": 2585, "Friends</w>": 2586, "stly</w>": 2587, "and": 2588, "Pe": 2589, "pale</w>": 2590, "Was</w>": 2591, "Exit</w>": 2592, "Ly": 2593, "up": 2594, "walking</w>": 2595, "Pre": 2596, "Pow": 2597, "hence</w>": 2598, "shape</w>": 2599, "commen": 2600, "lot</w>": 2601, "ites</w>": 2602, "ply</w>": 2603, "ending</w>": 2604, "lying</w>": 2605, "watch</w>": 2606, "wit": 2607, "horse</w>": 2608, "beauty</w>": 2609, "Rosin</w>": 2610, "gol": 2611, "cape</w>": 2612, "considered</w>": 2613, "Chur": 2614, "parted</w>": 2615, "became</w>": 2616, "Adam</w>": 2617, "thirty</w>": 2618, "settled</w>": 2619, "particular": 2620, "finished</w>": 2621, "trees</w>": 2622, "dad</w>": 2623, "armed</w>": 2624, "pillar</w>": 2625, "fixed</w>": 2626, "several</w>": 2627, "interest": 2628, "Corkscrew</w>": 2629, "onel</w>": 2630, "Rome</w>": 2631, "Haue</w>": 2632, "speaking</w>": 2633, "Far": 2634, "cast</w>": 2635, "tered</w>": 2636, "bow</w>": 2637, "llow</w>": 2638, "Mon": 2639, "Through</w>": 2640, "stances</w>": 2641, "forget</w>": 2642, "decl": 2643, "former</w>": 2644, "succe": 2645, "twel": 2646, "Queene</w>": 2647, "rememb": 2648, "cure</w>": 2649, "incl": 2650, "wra": 2651, "od</w>": 2652, "Isra": 2653, "Israel</w>": 2654, "spoken</w>": 2655, "mista": 2656, "creature</w>": 2657, "Banqu": 2658, "shment</w>": 2659, "Noah</w>": 2660, "jur": 2661, "sy": 2662, "human</w>": 2663, "looks</w>": 2664, "waiting</w>": 2665, "miles</w>": 2666, "anim": 2667, "object</w>": 2668, "pence</w>": 2669, "Barbara</w>": 2670, "leton</w>": 2671, "Henrie": 2672, "Henrietta</w>": 2673, "Duch": 2674, "Duchess</w>": 2675, "mans</w>": 2676, "finde</w>": 2677, "nar": 2678, "Son": 2679, "neuer</w>": 2680, "ester": 2681, "Rea": 2682, "stone</w>": 2683, "yr": 2684, "begin</w>": 2685, "suffi": 2686, "noise</w>": 2687, "stop</w>": 2688, "affection</w>": 2689, "atio</w>": 2690, "beha": 2691, "carry</w>": 2692, "ilt</w>": 2693, "Son</w>": 2694, "sav": 2695, "house": 2696, "mbs</w>": 2697, "clear</w>": 2698, "situ": 2699, "easy</w>": 2700, "musi": 2701, "difficul": 2702, "G</w>": 2703, "AT</w>": 2704, "happened</w>": 2705, "convin": 2706, "nobody</w>": 2707, "Midd": 2708, "Admiral</w>": 2709, "Louis": 2710, "Louisa</w>": 2711, "Bildad</w>": 2712, "Ho": 2713, "io": 2714, "ray</w>": 2715, "fear": 2716, "tall</w>": 2717, "gers</w>": 2718, "thes</w>": 2719, "tched</w>": 2720, "ama": 2721, "esti": 2722, "cut</w>": 2723, "Mur": 2724, "Light": 2725, "woe</w>": 2726, "extre": 2727, "confe": 2728, "pal": 2729, "esty</w>": 2730, "Gent": 2731, "Whose</w>": 2732, "lowly</w>": 2733, "act</w>": 2734, "proper": 2735, "Phi": 2736, "Ang": 2737, "glory</w>": 2738, "IS</w>": 2739, "Horatio</w>": 2740, "eal</w>": 2741, "od": 2742, "prepar": 2743, "except</w>": 2744, "cip": 2745, "ality</w>": 2746, "especi": 2747, "dry</w>": 2748, "food</w>": 2749, "assur": 2750, "consci": 2751, "nine</w>": 2752, "Mal": 2753, "ells</w>": 2754, "divi": 2755, "birds</w>": 2756, "coat</w>": 2757, "pper": 2758, "fy</w>": 2759, "situation</w>": 2760, "sive</w>": 2761, "voi": 2762, "knows</w>": 2763, "objec": 2764, "degree</w>": 2765, "RE": 2766, "break": 2767, "Brandon</w>": 2768, "harpooneer</w>": 2769, "Dorm": 2770, "Dormouse</w>": 2771, "Car": 2772, "la</w>": 2773, "danger</w>": 2774, "pati": 2775, "tongue</w>": 2776, "Caes</w>": 2777, "erely</w>": 2778, "himselfe</w>": 2779, "rent</w>": 2780, "yours</w>": 2781, "Na": 2782, "honest</w>": 2783, "according</w>": 2784, "Oc": 2785, "new": 2786, "bold</w>": 2787, "mate</w>": 2788, "Chi": 2789, "consequence</w>": 2790, "piece</w>": 2791, "mel": 2792, "Sw": 2793, "impossible</w>": 2794, "Rebe": 2795, "swee": 2796, "Ti": 2797, "share</w>": 2798, "force</w>": 2799, "determin": 2800, "match</w>": 2801, "month</w>": 2802, "Lon": 2803, "cent</w>": 2804, "rel": 2805, "ago</w>": 2806, "Wha": 2807, "laid</w>": 2808, "placed</w>": 2809, "spent</w>": 2810, "Banquo</w>": 2811, "ve": 2812, "ternal</w>": 2813, "infer": 2814, "ative</w>": 2815, "whatever</w>": 2816, "landlord</w>": 2817, "YOU": 2818, "Norland</w>": 2819, "Jenn": 2820, "Jennings</w>": 2821, "Colonel</w>": 2822, "lab": 2823, "respect</w>": 2824, "directly</w>": 2825, "but": 2826, "ban": 2827, "cation</w>": 2828, "Caesars</w>": 2829, "Cask</w>": 2830, "rut</w>": 2831, "Loue</w>": 2832, "ourable</w>": 2833, "fing": 2834, "ewell</w>": 2835, "sensible</w>": 2836, "willing</w>": 2837, "na</w>": 2838, "elds</w>": 2839, "whisp": 2840, "cau": 2841, "thin</w>": 2842, "itation</w>": 2843, "Wife</w>": 2844, "squ": 2845, "Hath</w>": 2846, "conclu": 2847, "dience</w>": 2848, "fled</w>": 2849, "descri": 2850, "earne": 2851, "tor": 2852, "Sat": 2853, "Polon</w>": 2854, "reach": 2855, "golden</w>": 2856, "cture</w>": 2857, "ages</w>": 2858, "thu": 2859, "passage</w>": 2860, "ylor</w>": 2861, "thro": 2862, "flowers</w>": 2863, "fancy</w>": 2864, "glo": 2865, "dw": 2866, "dah</w>": 2867, "entered</w>": 2868, "winter</w>": 2869, "she": 2870, "venture</w>": 2871, "sk</w>": 2872, "pherd</w>": 2873, "verse</w>": 2874, "frequ": 2875, "ghtful</w>": 2876, "drawn</w>": 2877, "fact</w>": 2878, "tired</w>": 2879, "breast</w>": 2880, "suddenly</w>": 2881, "pap": 2882, "exclaimed</w>": 2883, "agreeable</w>": 2884, "Palmer</w>": 2885, "Eliza": 2886, "Upper": 2887, "Uppercross</w>": 2888, "Au": 2889, "poore</w>": 2890, "growing</w>": 2891, "luck": 2892, "keepe</w>": 2893, "ooth</w>": 2894, "Brut</w>": 2895, "write</w>": 2896, "consider</w>": 2897, "Both</w>": 2898, "seene</w>": 2899, "Pla": 2900, "gest</w>": 2901, "bear": 2902, "rible</w>": 2903, "Bro": 2904, "ror</w>": 2905, "owes</w>": 2906, "vol": 2907, "necess": 2908, "Mad": 2909, "stantly</w>": 2910, "pit</w>": 2911, "liber": 2912, "fill</w>": 2913, "allow</w>": 2914, "followed</w>": 2915, "Take</w>": 2916, "itable</w>": 2917, "quiet</w>": 2918, "middle</w>": 2919, "lif": 2920, "ark</w>": 2921, "thor": 2922, "rate</w>": 2923, "especially</w>": 2924, "warm</w>": 2925, "marriage</w>": 2926, "inting</w>": 2927, "var": 2928, "seek</w>": 2929, "cely</w>": 2930, "Taylor</w>": 2931, "spread</w>": 2932, "chief</w>": 2933, "grave</w>": 2934, "cent": 2935, "advantage</w>": 2936, "neighbour": 2937, "compli": 2938, "conveni": 2939, "London</w>": 2940, "clock</w>": 2941, "hurry</w>": 2942, "favouri": 2943, "AL": 2944, "gement</w>": 2945, "Barton</w>": 2946, "Elizabeth</w>": 2947, "les": 2948, "WHA": 2949, "Vpon</w>": 2950, "ron</w>": 2951, "gue</w>": 2952, "gar</w>": 2953, "Dec": 2954, "trouble</w>": 2955, "angry</w>": 2956, "marke</w>": 2957, "Tit": 2958, "ceeded</w>": 2959, "dur": 2960, "Sword</w>": 2961, "Wo": 2962, "suffer": 2963, "promise</w>": 2964, "wilt</w>": 2965, "wil": 2966, "pper</w>": 2967, "fold</w>": 2968, "Hus": 2969, "et": 2970, "notice</w>": 2971, "sof": 2972, "Tw": 2973, "resol": 2974, "osed</w>": 2975, "Pi": 2976, "exer": 2977, "forty</w>": 2978, "mely</w>": 2979, "carried</w>": 2980, "accep": 2981, "foun": 2982, "ater": 2983, "shade</w>": 2984, "separ": 2985, "Sarah</w>": 2986, "favour</w>": 2987, "sel</w>": 2988, "kindness</w>": 2989, "observed</w>": 2990, "divine</w>": 2991, "occu": 2992, "Satan</w>": 2993, "sudden</w>": 2994, "surprise</w>": 2995, "influ": 2996, "woods</w>": 2997, "Nan": 2998, "favourite</w>": 2999}, "merges": [["e", "</w>", 0], ["d", "</w>", 1], ["t", "h", 2], ["s", "</w>", 3], ["t", "</w>", 4], ["n", "</w>", 5], ["e", "r", 6], ["y", "</w>", 7], ["a", "n", 8], ["i", "n", 9], ["o", "u", 10], ["o", "</w>", 11], ["th", "e</w>", 12], ["an", "d</w>", 13], ["o", "r", 14], ["f", "</w>", 15], ["a", "r", 16], ["er", "</w>", 17], ["e", "d</w>", 18], ["l", "</w>", 19], ["g", "</w>", 20], ["t", "o</w>", 21], ["h", "a", 22], ["o", "f</w>", 23], ["h", "i", 24], ["e", "n", 25], ["in", "g</w>", 26], ["r", "e", 27], ["o", "n", 28], ["m", "</w>", 29], ["l", "l</w>", 30], ["a", "</w>", 31], ["h", "e</w>", 32], ["i", "n</w>", 33], ["a", "t</w>", 34], ["I", "</w>", 35], ["h", "</w>", 36], ["o", "w", 37], ["o", "n</w>", 38], ["th", "</w>", 39], ["a", "s</w>", 40], ["e", "s</w>", 41], ["s", "t", 42], ["th", "e", 43], ["w", "i", 44], ["or", "</w>", 45], ["m", "e</w>", 46], ["l", "i", 47], ["r", "</w>", 48], ["s", "t</w>", 49], ["a", "t", 50], ["y", "ou", 51], ["e", "n</w>", 52], ["s", "e", 53], ["i", "s</w>", 54], ["i", "t</w>", 55], ["s", "e</w>", 56], ["e", "a", 57], ["r", "o", 58], ["l", "y</w>", 59], ["l", "d</w>", 60], ["b", "e", 61], ["l", "e</w>", 62], ["n", "o", 63], ["c", "e</w>", 64], ["s", "a", 65], ["hi", "s</w>", 66], ["g", "h", 67], ["r", "i", 68], ["a", "n</w>", 69], ["th", "at</w>", 70], ["c", "h</w>", 71], ["er", "e</w>", 72], ["n", "d</w>", 73], ["t", "i", 74], ["v", "e</w>", 75], ["s", "i", 76], ["w", "as</w>", 77], ["you", "</w>", 78], ["ow", "</w>", 79], ["no", "t</w>", 80], ["l", "e", 81], ["o", "o", 82], ["k", "</w>", 83], ["u", "r", 84], ["a", "l", 85], ["wi", "th</w>", 86], ["u", "t</w>", 87], ["w", "h", 88], ["d", "i", 89], ["e", "ar", 90], ["h", "er</w>", 91], ["b", "e</w>", 92], ["r", "a", 93], ["a", "ll</w>", 94], ["c", "o", 95], ["l", "a", 96], ["u", "n", 97], ["k", "e</w>", 98], ["f", "or</w>", 99], ["A", "nd</w>", 100], ["th", "er</w>", 101], ["gh", "t</w>", 102], ["ou", "ld</w>", 103], ["m", "a", 104], ["n", "e", 105], ["m", "y</w>", 106], ["s", "h", 107], ["en", "t</w>", 108], ["v", "er", 109], ["d", "e", 110], ["s", "he</w>", 111], ["hi", "m</w>", 112], ["ha", "t</w>", 113], ["i", "d</w>", 114], ["s", "s</w>", 115], ["s", "p", 116], ["s", "u", 117], ["i", "t", 118], ["a", "c", 119], ["ha", "d</w>", 120], ["i", "r</w>", 121], ["th", "ou", 122], ["f", "or", 123], ["s", "o", 124], ["t", "a", 125], ["p", "</w>", 126], ["on", "e</w>", 127], ["b", "ut</w>", 128], ["t", "er</w>", 129], ["e", "t</w>", 130], ["i", "r", 131], ["d", "s</w>", 132], ["e", "l", 133], ["s", "o</w>", 134], ["m", "i", 135], ["sa", "id</w>", 136], ["c", "on", 137], ["v", "er</w>", 138], ["w", "hi", 139], ["a", "y</w>", 140], ["T", "h", 141], ["a", "b", 142], ["ar", "e</w>", 143], ["b", "y</w>", 144], ["c", "h", 145], ["t", "s</w>", 146], ["ver", "y</w>", 147], ["ro", "m</w>", 148], ["th", "is</w>", 149], ["a", "s", 150], ["q", "u", 151], ["T", "he</w>", 152], ["m", "o", 153], ["m", "u", 154], ["m", "p", 155], ["p", "p", 156], ["the", "y</w>", 157], ["n", "ow</w>", 158], ["er", "s</w>", 159], ["f", "rom</w>", 160], ["m", "or", 161], ["e", "ll</w>", 162], ["d", "e</w>", 163], ["ha", "ve</w>", 164], ["g", "e</w>", 165], ["f", "a", 166], ["c", "a", 167], ["se", "l", 168], ["r", "u", 169], ["l", "o", 170], ["t", "t", 171], ["ou", "t</w>", 172], ["the", "m</w>", 173], ["w", "</w>", 174], ["at", "i", 175], ["oo", "d</w>", 176], ["u", "s</w>", 177], ["g", "h</w>", 178], ["m", "e", 179], ["s", "ha", 180], ["ou", "r</w>", 181], ["the", "ir</w>", 182], ["ow", "n</w>", 183], ["a", "m</w>", 184], ["w", "or", 185], ["wi", "ll</w>", 186], ["whi", "ch</w>", 187], ["w", "ere</w>", 188], ["u", "e</w>", 189], ["m", "an</w>", 190], ["e", "c", 191], ["g", "a", 192], ["e", "e", 193], ["a", "d", 194], ["n", "o</w>", 195], ["in", "g", 196], ["f", "i", 197], ["h", "o", 198], ["p", "o", 199], ["en", "t", 200], ["w", "hat</w>", 201], ["r", "ou", 202], ["you", "r</w>", 203], ["b", "o", 204], ["t", "o", 205], ["th", "ing</w>", 206], ["an", "y</w>", 207], ["e", "x", 208], ["f", "u", 209], ["ar", "</w>", 210], ["a", "l</w>", 211], ["g", "re", 212], ["v", "i", 213], ["sel", "f</w>", 214], ["d", "o</w>", 215], ["l", "ea", 216], ["ur", "e</w>", 217], ["on", "s</w>", 218], ["n", "e</w>", 219], ["in", "e</w>", 220], ["en", "ce</w>", 221], ["f", "e</w>", 222], ["mor", "e</w>", 223], ["d", "o", 224], ["t", "ed</w>", 225], ["w", "ould</w>", 226], ["s", "ed</w>", 227], ["t", "y</w>", 228], ["ou", "s</w>", 229], ["p", "er", 230], ["B", "ut</w>", 231], ["th", "ere</w>", 232], ["sha", "ll</w>", 233], ["p", "re", 234], ["c", "ould</w>", 235], ["l", "ed</w>", 236], ["wh", "en</w>", 237], ["b", "le</w>", 238], ["c", "e", 239], ["p", "ro", 240], ["on", "g</w>", 241], ["ear", "</w>", 242], ["w", "e</w>", 243], ["a", "f", 244], ["W", "h", 245], ["k", "ing</w>", 246], ["p", "ar", 247], ["at", "e</w>", 248], ["g", "i", 249], ["n", "i", 250], ["l", "oo", 251], ["c", "i", 252], ["p", "a", 253], ["an", "t</w>", 254], ["co", "m", 255], ["ou", "n", 256], ["ti", "on</w>", 257], ["l", "l", 258], ["wh", "o</w>", 259], ["thou", "</w>", 260], ["ati", "on</w>", 261], ["d", "ed</w>", 262], ["o", "f", 263], ["C", "a", 264], ["w", "a", 265], ["an", "ce</w>", 266], ["e", "st</w>", 267], ["w", "ay</w>", 268], ["c", "k</w>", 269], ["r", "y</w>", 270], ["v", "en</w>", 271], ["a", "m", 272], ["i", "f</w>", 273], ["t", "er", 274], ["p", "on</w>", 275], ["ar", "d</w>", 276], ["w", "ell</w>", 277], ["st", "i", 278], ["g", "ood</w>", 279], ["t", "w", 280], ["d", "er</w>", 281], ["th", "y</w>", 282], ["o", "ther</w>", 283], ["ou", "r", 284], ["s", "h</w>", 285], ["e", "m", 286], ["k", "now</w>", 287], ["g", "o", 288], ["u", "p</w>", 289], ["li", "ke</w>", 290], ["be", "en</w>", 291], ["the", "n</w>", 292], ["tt", "le</w>", 293], ["for", "e</w>", 294], ["ing", "s</w>", 295], ["f", "e", 296], ["co", "me</w>", 297], ["en", "d</w>", 298], ["so", "me</w>", 299], ["h", "e", 300], ["h", "ea", 301], ["p", "la", 302], ["H", "e</w>", 303], ["se", "e</w>", 304], ["k", "ed</w>", 305], ["c", "u", 306], ["h", "ear", 307], ["W", "i", 308], ["o", "se</w>", 309], ["the", "e</w>", 310], ["e", "ver</w>", 311], ["a", "ga", 312], ["d", "a", 313], ["th", "an</w>", 314], ["li", "ttle</w>", 315], ["re", "a", 316], ["s", "er", 317], ["r", "an", 318], ["v", "ed</w>", 319], ["su", "ch</w>", 320], ["f", "ir", 321], ["mu", "st</w>", 322], ["di", "d</w>", 323], ["in", "d</w>", 324], ["d", "ay</w>", 325], ["M", "ar", 326], ["G", "o", 327], ["mu", "ch</w>", 328], ["T", "o</w>", 329], ["ou", "</w>", 330], ["y", "s</w>", 331], ["o", "p", 332], ["un", "to</w>", 333], ["I", "t</w>", 334], ["ou", "se</w>", 335], ["m", "b", 336], ["sh", "ould</w>", 337], ["ti", "me</w>", 338], ["d", "y</w>", 339], ["th", "in", 340], ["e", "y</w>", 341], ["c", "an</w>", 342], ["d", "er", 343], ["s", "c", 344], ["m", "ent</w>", 345], ["d", "ing</w>", 346], ["M", "r</w>", 347], ["t", "e</w>", 348], ["d", "re", 349], ["l", "es</w>", 350], ["T", "hat</w>", 351], ["t", "ur", 352], ["W", "hat</w>", 353], ["in", "to</w>", 354], ["n", "ing</w>", 355], ["ca", "me</w>", 356], ["t", "e", 357], ["mo", "st</w>", 358], ["gre", "at</w>", 359], ["ou", "nd</w>", 360], ["e", "very</w>", 361], ["p", "e</w>", 362], ["g", "o</w>", 363], ["d", "u", 364], ["u", "pon</w>", 365], ["s", "w", 366], ["e", "s", 367], ["on", "ly</w>", 368], ["b", "</w>", 369], ["ab", "out</w>", 370], ["c", "hi", 371], ["o", "m</w>", 372], ["l", "u", 373], ["v", "es</w>", 374], ["h", "ar", 375], ["l", "ing</w>", 376], ["h", "er", 377], ["m", "en</w>", 378], ["h", "ow</w>", 379], ["v", "ing</w>", 380], ["b", "u", 381], ["the", "se</w>", 382], ["r", "e</w>", 383], ["c", "k", 384], ["s", "on</w>", 385], ["sa", "y</w>", 386], ["A", "n", 387], ["ma", "y</w>", 388], ["e", "y", 389], ["g", "e", 390], ["S", "he</w>", 391], ["j", "u", 392], ["le", "t</w>", 393], ["p", "i", 394], ["t", "ing</w>", 395], ["co", "mp", 396], ["Y", "ou</w>", 397], ["fu", "l</w>", 398], ["h", "ouse</w>", 399], ["Go", "d</w>", 400], ["r", "s</w>", 401], ["ab", "le</w>", 402], ["t", "en", 403], ["y", "ing</w>", 404], ["ne", "ver</w>", 405], ["g", "u", 406], ["or", "d</w>", 407], ["ar", "ri", 408], ["l", "and</w>", 409], ["d", "ea", 410], ["d", "own</w>", 411], ["o", "ld</w>", 412], ["a", "pp", 413], ["be", "fore</w>", 414], ["s", "ure</w>", 415], ["li", "ce</w>", 416], ["I", "n</w>", 417], ["ma", "ke</w>", 418], ["o", "l", 419], ["y", "et</w>", 420], ["m", "an", 421], ["ne", "ss</w>", 422], ["ma", "de</w>", 423], ["wh", "ere</w>", 424], ["ha", "ue</w>", 425], ["s", "si", 426], ["af", "ter</w>", 427], ["to", "o</w>", 428], ["fa", "ther</w>", 429], ["A", "lice</w>", 430], ["M", "rs</w>", 431], ["t", "u", 432], ["gh", "t", 433], ["le", "ss</w>", 434], ["thou", "ght</w>", 435], ["er", "e", 436], ["n", "a", 437], ["thin", "k</w>", 438], ["f", "t</w>", 439], ["A", "</w>", 440], ["mi", "ght</w>", 441], ["ear", "s</w>", 442], ["w", "o", 443], ["i", "l", 444], ["be", "ing</w>", 445], ["F", "or</w>", 446], ["e", "st", 447], ["m", "m", 448], ["ta", "in</w>", 449], ["o", "b", 450], ["u", "se</w>", 451], ["fir", "st</w>", 452], ["tw", "o</w>", 453], ["h", "an", 454], ["p", "e", 455], ["it", "s</w>", 456], ["O", "f</w>", 457], ["ni", "ght</w>", 458], ["o", "ver</w>", 459], ["p", "lea", 460], ["it", "e</w>", 461], ["al", "ly</w>", 462], ["Q", "u", 463], ["s", "ing</w>", 464], ["be", "g", 465], ["aga", "in</w>", 466], ["re", "e</w>", 467], ["v", "en", 468], ["p", "s</w>", 469], ["l", "ong</w>", 470], ["E", "l", 471], ["f", "er", 472], ["oo", "k</w>", 473], ["v", "o", 474], ["H", "am</w>", 475], ["thou", "gh</w>", 476], ["E", "n", 477], ["r", "ed</w>", 478], ["w", "ent</w>", 479], ["h", "ere</w>", 480], ["f", "ri", 481], ["ec", "t</w>", 482], ["y", "e</w>", 483], ["p", "ri", 484], ["el", "l", 485], ["s", "hi", 486], ["it", "y</w>", 487], ["N", "o", 488], ["ha", "pp", 489], ["O", "</w>", 490], ["h", "and</w>", 491], ["k", "n", 492], ["M", "i", 493], ["k", "s</w>", 494], ["e", "ly</w>", 495], ["g", "ra", 496], ["g", "r", 497], ["s", "in", 498], ["b", "ro", 499], ["H", "ea", 500], ["n", "ed</w>", 501], ["c", "re", 502], ["m", "ar", 503], ["p", "t</w>", 504], ["g", "er</w>", 505], ["as", "si", 506], ["t", "ter</w>", 507], ["c", "oun", 508], ["e", "ss</w>", 509], ["L", "ord</w>", 510], ["K", "ing</w>", 511], ["g", "ed</w>", 512], ["c", "</w>", 513], ["E", "</w>", 514], ["B", "ru", 515], ["rou", "gh</w>", 516], ["m", "es</w>", 517], ["at", "ed</w>", 518], ["thou", "t</w>", 519], ["of", "f</w>", 520], ["i", "mp", 521], ["m", "in", 522], ["B", "e", 523], ["t", "ly</w>", 524], ["s", "es</w>", 525], ["ne", "w</w>", 526], ["ta", "ke</w>", 527], ["bo", "dy</w>", 528], ["c", "al", 529], ["c", "an", 530], ["Th", "ey</w>", 531], ["A", "s</w>", 532], ["hi", "m", 533], ["j", "o", 534], ["C", "o", 535], ["le", "e", 536], ["M", "ac", 537], ["rou", "nd</w>", 538], ["a", "way</w>", 539], ["T", "his</w>", 540], ["I", "f</w>", 541], ["s", "ent</w>", 542], ["hea", "d</w>", 543], ["m", "on", 544], ["l", "ar", 545], ["k", "es</w>", 546], ["s", "or", 547], ["st", "er</w>", 548], ["b", "ra", 549], ["S", "o</w>", 550], ["h", "u", 551], ["so", "me", 552], ["l", "an", 553], ["wi", "thout</w>", 554], ["you", "n", 555], ["f", "ound</w>", 556], ["her", "self</w>", 557], ["t", "ru", 558], ["ad", "y</w>", 559], ["m", "s</w>", 560], ["l", "ow", 561], ["gi", "ve</w>", 562], ["s", "se</w>", 563], ["J", "o", 564], ["m", "en", 565], ["b", "rea", 566], ["m", "at", 567], ["t", "ell</w>", 568], ["Wi", "th</w>", 569], ["c", "ed</w>", 570], ["ou", "gh</w>", 571], ["mo", "ther</w>", 572], ["c", "er", 573], ["s", "en", 574], ["l", "ou", 575], ["b", "ac", 576], ["ri", "ed</w>", 577], ["t", "ra", 578], ["no", "thing</w>", 579], ["la", "st</w>", 580], ["e", "i", 581], ["pla", "ce</w>", 582], ["se", "em", 583], ["sp", "ea", 584], ["d", "ly</w>", 585], ["li", "ght</w>", 586], ["ho", "ld</w>", 587], ["D", "</w>", 588], ["w", "ar", 589], ["a", "h</w>", 590], ["r", "ing</w>", 591], ["li", "fe</w>", 592], ["wa", "ys</w>", 593], ["m", "any</w>", 594], ["ha", "s</w>", 595], ["m", "ed</w>", 596], ["M", "y</w>", 597], ["S", "u", 598], ["th", "ose</w>", 599], ["ear", "th</w>", 600], ["sa", "w</w>", 601], ["d", "on</w>", 602], ["c", "es</w>", 603], ["th", "rough</w>", 604], ["him", "self</w>", 605], ["ti", "ll</w>", 606], ["sp", "o", 607], ["w", "at", 608], ["w", "al", 609], ["p", "u", 610], ["er", "ed</w>", 611], ["sh", "ed</w>", 612], ["H", "ow</w>", 613], ["d", "one</w>", 614], ["ri", "ght</w>", 615], ["so", "on</w>", 616], ["lo", "ve</w>", 617], ["e", "l</w>", 618], ["l", "t</w>", 619], ["re", "s</w>", 620], ["d", "d", 621], ["a", "ge</w>", 622], ["ju", "st</w>", 623], ["de", "ed</w>", 624], ["si", "de</w>", 625], ["i", "ll</w>", 626], ["H", "a", 627], ["t", "re", 628], ["ca", "use</w>", 629], ["s", "ur", 630], ["in", "ed</w>", 631], ["whi", "le</w>", 632], ["i", "ce</w>", 633], ["R", "o", 634], ["O", "h</w>", 635], ["se", "e", 636], ["st", "re", 637], ["x", "</w>", 638], ["ey", "es</w>", 639], ["or", "e</w>", 640], ["N", "o</w>", 641], ["r", "ow</w>", 642], ["Th", "ere</w>", 643], ["W", "hi", 644], ["hear", "d</w>", 645], ["na", "me</w>", 646], ["youn", "g</w>", 647], ["ha", "l", 648], ["ha", "th</w>", 649], ["S", "ir</w>", 650], ["e", "u", 651], ["sti", "ll</w>", 652], ["w", "ard</w>", 653], ["y", "ears</w>", 654], ["n", "or</w>", 655], ["qu", "e", 656], ["Ca", "p", 657], ["ce", "i", 658], ["Th", "en</w>", 659], ["s", "ons</w>", 660], ["re", "p", 661], ["L", "i", 662], ["loo", "k</w>", 663], ["in", "ter", 664], ["sa", "me</w>", 665], ["wh", "om</w>", 666], ["L", "a", 667], ["in", "s</w>", 668], ["e", "en</w>", 669], ["m", "y", 670], ["r", "ow", 671], ["H", "is</w>", 672], ["t", "al", 673], ["Ca", "es", 674], ["da", "u", 675], ["g", "en", 676], ["W", "e</w>", 677], ["Hea", "ven</w>", 678], ["al", "ways</w>", 679], ["d", "es</w>", 680], ["p", "ra", 681], ["c", "lo", 682], ["con", "t", 683], ["ch", "ar", 684], ["qu", "ite</w>", 685], ["En", "ter</w>", 686], ["th", "ers</w>", 687], ["te", "mp", 688], ["b", "a", 689], ["k", "en</w>", 690], ["p", "ut</w>", 691], ["fu", "ll</w>", 692], ["l", "s</w>", 693], ["qu", "i", 694], ["t", "on</w>", 695], ["at", "t", 696], ["on", "ce</w>", 697], ["wor", "ld</w>", 698], ["wo", "man</w>", 699], ["se", "a</w>", 700], ["f", "ec", 701], ["bac", "k</w>", 702], ["s", "m", 703], ["su", "pp", 704], ["g", "et</w>", 705], ["r", "in", 706], ["n", "er</w>", 707], ["l", "dre", 708], ["ldre", "n</w>", 709], ["th", "ings</w>", 710], ["f", "in", 711], ["c", "or", 712], ["an", "i", 713], ["I", "n", 714], ["en", "ough</w>", 715], ["Mi", "ss</w>", 716], ["d", "ou", 717], ["b", "ea", 718], ["wi", "fe</w>", 719], ["o", "c", 720], ["O", "R", 721], ["com", "m", 722], ["f", "o", 723], ["fa", "ce</w>", 724], ["S", "t", 725], ["par", "t</w>", 726], ["bo", "th</w>", 727], ["w", "in", 728], ["s", "sed</w>", 729], ["cal", "led</w>", 730], ["Wh", "y</w>", 731], ["g", "ar", 732], ["mm", "a</w>", 733], ["b", "i", 734], ["m", "ine</w>", 735], ["or", "s</w>", 736], ["b", "l", 737], ["Wh", "en</w>", 738], ["ge", "ther</w>", 739], ["st", "r", 740], ["v", "a", 741], ["J", "a", 742], ["p", "en", 743], ["s", "lee", 744], ["kn", "ow", 745], ["w", "ha", 746], ["Cap", "tain</w>", 747], ["di", "s", 748], ["i", "an", 749], ["N", "ow</w>", 750], ["d", "ra", 751], ["er", "y</w>", 752], ["di", "f", 753], ["to", "gether</w>", 754], ["in", "st</w>", 755], ["p", "ur", 756], ["t", "ook</w>", 757], ["chi", "ldren</w>", 758], ["st", "an", 759], ["p", "as", 760], ["Th", "e", 761], ["re", "tur", 762], ["ro", "om</w>", 763], ["seem", "ed</w>", 764], ["E", "mma</w>", 765], ["ere", "fore</w>", 766], ["h", "un", 767], ["gh", "ts</w>", 768], ["can", "not</w>", 769], ["be", "tter</w>", 770], ["un", "der</w>", 771], ["ee", "p</w>", 772], ["t", "us</w>", 773], ["C", "assi", 774], ["th", "ree</w>", 775], ["An", "ne</w>", 776], ["in", "deed</w>", 777], ["s", "ou", 778], ["ear", "e</w>", 779], ["Caes", "ar</w>", 780], ["on", "g", 781], ["b", "or", 782], ["ati", "ons</w>", 783], ["an", "sw", 784], ["ea", "ch</w>", 785], ["u", "s", 786], ["T", "H", 787], ["Mar", "ian", 788], ["Marian", "ne</w>", 789], ["tt", "ing</w>", 790], ["se", "t</w>", 791], ["A", "ll</w>", 792], ["x", "t</w>", 793], ["f", "re", 794], ["t", "un", 795], ["P", "o", 796], ["ent", "ly</w>", 797], ["c", "ar", 798], ["e", "m</w>", 799], ["A", "bra", 800], ["M", "a", 801], ["re", "st</w>", 802], ["hal", "f</w>", 803], ["gen", "er", 804], ["i", "se</w>", 805], ["ta", "ble</w>", 806], ["la", "y</w>", 807], ["en", "e</w>", 808], ["le", "ft</w>", 809], ["S", "</w>", 810], ["bro", "ther</w>", 811], ["d", "ear</w>", 812], ["me", "an", 813], ["at", "ure</w>", 814], ["ch", "an", 815], ["d", "ar", 816], ["m", "er", 817], ["t", "ry</w>", 818], ["d", "en</w>", 819], ["wi", "th", 820], ["c", "tion</w>", 821], ["i", "l</w>", 822], ["ho", "me</w>", 823], ["v", "s</w>", 824], ["wor", "d</w>", 825], ["F", "a", 826], ["b", "ur", 827], ["st", "and</w>", 828], ["d", "ge</w>", 829], ["in", "t", 830], ["an", "other</w>", 831], ["mor", "ning</w>", 832], ["se", "en</w>", 833], ["sel", "fe</w>", 834], ["e", "w</w>", 835], ["th", "us</w>", 836], ["si", "l", 837], ["b", "ed</w>", 838], ["dou", "b", 839], ["my", "self</w>", 840], ["c", "t</w>", 841], ["co", "l", 842], ["el", "t</w>", 843], ["co", "b</w>", 844], ["v", "n", 845], ["p", "h", 846], ["Ja", "cob</w>", 847], ["Mar", "y</w>", 848], ["H", "arri", 849], ["Harri", "et</w>", 850], ["h", "or", 851], ["t", "ow", 852], ["ti", "mes</w>", 853], ["l", "ow</w>", 854], ["op", "le</w>", 855], ["li", "e", 856], ["ti", "es</w>", 857], ["su", "b", 858], ["E", "R", 859], ["E", "x", 860], ["c", "ur", 861], ["ra", "ther</w>", 862], ["s", "it</w>", 863], ["sp", "i", 864], ["f", "ar</w>", 865], ["v", "an", 866], ["sp", "ec", 867], ["li", "ed</w>", 868], ["mb", "er</w>", 869], ["vo", "ice</w>", 870], ["wor", "th</w>", 871], ["OR", "D</w>", 872], ["Wh", "ere</w>", 873], ["hi", "gh</w>", 874], ["do", "es</w>", 875], ["hear", "t</w>", 876], ["a", "ir</w>", 877], ["L", "ORD</w>", 878], ["k", "new</w>", 879], ["D", "a", 880], ["aga", "inst</w>", 881], ["wh", "o", 882], ["happ", "y</w>", 883], ["L", "et</w>", 884], ["en", "ds</w>", 885], ["c", "ried</w>", 886], ["pe", "ople</w>", 887], ["ex", "c", 888], ["f", "ind</w>", 889], ["ar", "t</w>", 890], ["han", "ds</w>", 891], ["loo", "ked</w>", 892], ["rou", "ght</w>", 893], ["si", "on</w>", 894], ["rea", "d</w>", 895], ["i", "m", 896], ["st", "o", 897], ["t", "en</w>", 898], ["some", "thing</w>", 899], ["El", "in", 900], ["Elin", "or</w>", 901], ["i", "s", 902], ["st", "a", 903], ["or", "t</w>", 904], ["pa", "ss</w>", 905], ["w", "on", 906], ["ti", "ons</w>", 907], ["con", "si", 908], ["be", "cause</w>", 909], ["m", "ind</w>", 910], ["c", "y</w>", 911], ["Bru", "tus</w>", 912], ["c", "our", 913], ["h", "ow", 914], ["go", "ing</w>", 915], ["h", "ear</w>", 916], ["e", "ven</w>", 917], ["or", "y</w>", 918], ["g", "es</w>", 919], ["gh", "ter</w>", 920], ["in", "t</w>", 921], ["i", "ght</w>", 922], ["f", "ac", 923], ["S", "o", 924], ["mo", "ment</w>", 925], ["si", "ster</w>", 926], ["Wh", "o</w>", 927], ["on", "d</w>", 928], ["d", "en", 929], ["f", "oo", 930], ["ne", "xt</w>", 931], ["fe", "el", 932], ["for", "th</w>", 933], ["b", "la", 934], ["go", "t</w>", 935], ["b", "ar", 936], ["al", "so</w>", 937], ["i", "g", 938], ["L", "ady</w>", 939], ["shi", "p</w>", 940], ["po", "or</w>", 941], ["w", "an", 942], ["c", "all</w>", 943], ["c", "ke</w>", 944], ["to", "ld</w>", 945], ["M", "o", 946], ["ou", "s", 947], ["g", "ro", 948], ["st", "ood</w>", 949], ["e", "ld</w>", 950], ["ta", "in", 951], ["i", "ous</w>", 952], ["our", "s</w>", 953], ["ha", "m</w>", 954], ["m", "er</w>", 955], ["Bru", "</w>", 956], ["dea", "th</w>", 957], ["be", "st</w>", 958], ["O", "r</w>", 959], ["b", "rought</w>", 960], ["sa", "ying</w>", 961], ["ea", "n</w>", 962], ["g", "one</w>", 963], ["d", "ow", 964], ["el", "se</w>", 965], ["No", "t</w>", 966], ["B", "y</w>", 967], ["Co", "me</w>", 968], ["t", "es</w>", 969], ["s", "s", 970], ["T", "</w>", 971], ["wor", "ds</w>", 972], ["t", "ri", 973], ["en", "ed</w>", 974], ["la", "u", 975], ["A", "r", 976], ["fu", "l", 977], ["st", "ri", 978], ["p", "ow", 979], ["be", "lie", 980], ["p", "h</w>", 981], ["beg", "an</w>", 982], ["g", "ent", 983], ["st", "ran", 984], ["f", "ar", 985], ["cu", "l", 986], ["de", "li", 987], ["e", "ven", 988], ["ha", "ving</w>", 989], ["men", "ts</w>", 990], ["wh", "ose</w>", 991], ["w", "ood</w>", 992], ["un", "der", 993], ["p", "er</w>", 994], ["de", "e", 995], ["ha", "ps</w>", 996], ["h", "on", 997], ["fri", "end</w>", 998], ["do", "or</w>", 999], ["ho", "pe</w>", 1000], ["u", "l", 1001], ["w", "r", 1002], ["re", "as", 1003], ["e", "et</w>", 1004], ["da", "ys</w>", 1005], ["c", "ha", 1006], ["le", "y</w>", 1007], ["R", "e", 1008], ["f", "ee", 1009], ["b", "re", 1010], ["di", "st", 1011], ["fa", "mi", 1012], ["ga", "ve</w>", 1013], ["fo", "ll", 1014], ["ar", "y</w>", 1015], ["b", "le", 1016], ["th", "re", 1017], ["e", "mp", 1018], ["who", "le</w>", 1019], ["pre", "sent</w>", 1020], ["l", "at", 1021], ["k", "e", 1022], ["f", "elt</w>", 1023], ["wi", "sh</w>", 1024], ["wor", "k</w>", 1025], ["y", "thing</w>", 1026], ["ir", "e</w>", 1027], ["h", "ur", 1028], ["n", "s</w>", 1029], ["ou", "ght</w>", 1030], ["ssi", "on</w>", 1031], ["C", "on", 1032], ["s", "mi", 1033], ["re", "ady</w>", 1034], ["com", "for", 1035], ["f", "al", 1036], ["Mac", "b</w>", 1037], ["o", "t</w>", 1038], ["e", "e</w>", 1039], ["of", "f", 1040], ["am", "ong</w>", 1041], ["ne", "i", 1042], ["lar", "ge</w>", 1043], ["Jo", "se", 1044], ["Jose", "ph</w>", 1045], ["I", "s</w>", 1046], ["y", "es</w>", 1047], ["Whi", "ch</w>", 1048], ["S", "p", 1049], ["ta", "ge</w>", 1050], ["ar", "ds</w>", 1051], ["th", "i", 1052], ["f", "le", 1053], ["in", "i", 1054], ["g", "la", 1055], ["e", "qu", 1056], ["k", "ind</w>", 1057], ["I", "sa", 1058], ["rep", "lied</w>", 1059], ["de", "si", 1060], ["u", "</w>", 1061], ["dif", "fer", 1062], ["e", "le", 1063], ["st", "e</w>", 1064], ["c", "ir", 1065], ["ex", "p", 1066], ["n", "u", 1067], ["el", "s</w>", 1068], ["be", "tw", 1069], ["ac", "h", 1070], ["tru", "e</w>", 1071], ["with", "in</w>", 1072], ["Abra", "ham</w>", 1073], ["a", "u", 1074], ["p", "ing</w>", 1075], ["h", "el", 1076], ["H", "A", 1077], ["sel", "ves</w>", 1078], ["n", "ear</w>", 1079], ["sor", "t</w>", 1080], ["sin", "ce</w>", 1081], ["z", "e</w>", 1082], ["re", "cei", 1083], ["fe", "w</w>", 1084], ["y", "ed</w>", 1085], ["li", "ty</w>", 1086], ["g", "ing</w>", 1087], ["fi", "eld</w>", 1088], ["chi", "ld</w>", 1089], ["v", "pon</w>", 1090], ["ch", "es</w>", 1091], ["ri", "e", 1092], ["st", "ea", 1093], ["dau", "ghter</w>", 1094], ["even", "ing</w>", 1095], ["d", "an", 1096], ["fir", "e</w>", 1097], ["A", "d", 1098], ["loo", "king</w>", 1099], ["how", "ever</w>", 1100], ["re", "me", 1101], ["st", "ers</w>", 1102], ["ha", "st</w>", 1103], ["d", "red</w>", 1104], ["s", "k", 1105], ["h", "n</w>", 1106], ["J", "em</w>", 1107], ["C", "har", 1108], ["ch", "ed</w>", 1109], ["a", "ke</w>", 1110], ["c", "ro", 1111], ["wh", "y</w>", 1112], ["si", "ght</w>", 1113], ["at", "ten", 1114], ["Jo", "hn</w>", 1115], ["W", "ent", 1116], ["Went", "worth</w>", 1117], ["m", "ou", 1118], ["qu", "a", 1119], ["e", "ther</w>", 1120], ["u", "r</w>", 1121], ["c", "ou", 1122], ["f", "f", 1123], ["o", "h</w>", 1124], ["b", "ring</w>", 1125], ["H", "ar", 1126], ["er", "ing</w>", 1127], ["oo", "d", 1128], ["ou", "gh", 1129], ["D", "o</w>", 1130], ["st", "ru", 1131], ["e", "w", 1132], ["tt", "y</w>", 1133], ["F", "rom</w>", 1134], ["w", "ant</w>", 1135], ["mon", "ey</w>", 1136], ["par", "ti", 1137], ["kn", "own</w>", 1138], ["cont", "in", 1139], ["un", "t</w>", 1140], ["th", "erefore</w>", 1141], ["at", "es</w>", 1142], ["Y", "</w>", 1143], ["c", "l", 1144], ["H", "am", 1145], ["v", "ent", 1146], ["per", "haps</w>", 1147], ["u", "es</w>", 1148], ["en", "g", 1149], ["n", "one</w>", 1150], ["s", "ati", 1151], ["st", "ra", 1152], ["lea", "ve</w>", 1153], ["dea", "d</w>", 1154], ["H", "i", 1155], ["lea", "st</w>", 1156], ["li", "ve</w>", 1157], ["m", "a</w>", 1158], ["b", "r", 1159], ["W", "ell</w>", 1160], ["em", "ent</w>", 1161], ["O", "n</w>", 1162], ["l", "ate</w>", 1163], ["u", "en</w>", 1164], ["the", "m", 1165], ["al", "most</w>", 1166], ["ch", "ing</w>", 1167], ["A", "t</w>", 1168], ["betw", "een</w>", 1169], ["on", "es</w>", 1170], ["c", "la", 1171], ["ck", "s</w>", 1172], ["c", "t", 1173], ["ssi", "ble</w>", 1174], ["sati", "s", 1175], ["b", "er", 1176], ["b", "it</w>", 1177], ["e", "vi", 1178], ["Da", "sh", 1179], ["di", "re", 1180], ["d", "ers</w>", 1181], ["B", "ar", 1182], ["S", "ha", 1183], ["op", "en</w>", 1184], ["it", "ed</w>", 1185], ["st", "ed</w>", 1186], ["l", "on", 1187], ["on", "i", 1188], ["mat", "ter</w>", 1189], ["ar", "s</w>", 1190], ["as", "k</w>", 1191], ["ch", "o", 1192], ["app", "ear", 1193], ["ch", "e", 1194], ["ey", "e</w>", 1195], ["gre", "at", 1196], ["d", "ro", 1197], ["que", "sti", 1198], ["sw", "eet</w>", 1199], ["ER", "</w>", 1200], ["W", "al", 1201], ["d", "in", 1202], ["al", "one</w>", 1203], ["k", "in", 1204], ["spea", "k</w>", 1205], ["bo", "y</w>", 1206], ["bea", "u", 1207], ["e", "at</w>", 1208], ["j", "ect</w>", 1209], ["N", "or</w>", 1210], ["ei", "ther</w>", 1211], ["i", "ma", 1212], ["consi", "der", 1213], ["g", "y", 1214], ["sa", "n</w>", 1215], ["f", "all</w>", 1216], ["w", "ee", 1217], ["u", "i", 1218], ["for", "tun", 1219], ["me", "di", 1220], ["ow", "ed</w>", 1221], ["g", "s</w>", 1222], ["s", "at</w>", 1223], ["Su", "san</w>", 1224], ["com", "es</w>", 1225], ["cour", "se</w>", 1226], ["F", "or", 1227], ["Cassi", "</w>", 1228], ["w", "ri", 1229], ["hun", "dred</w>", 1230], ["a", "d</w>", 1231], ["at", "ely</w>", 1232], ["c", "le", 1233], ["H", "er</w>", 1234], ["fami", "ly</w>", 1235], ["I", "le</w>", 1236], ["st", "u", 1237], ["st", "s</w>", 1238], ["ri", "ts</w>", 1239], ["ni", "ght", 1240], ["com", "ing</w>", 1241], ["in", "e", 1242], ["belie", "ve</w>", 1243], ["on", "y</w>", 1244], ["v", "al", 1245], ["answ", "er</w>", 1246], ["at", "ing</w>", 1247], ["f", "la", 1248], ["dra", "w", 1249], ["doub", "t</w>", 1250], ["wat", "er</w>", 1251], ["af", "fec", 1252], ["ear", "ly</w>", 1253], ["min", "u", 1254], ["ca", "p", 1255], ["Th", "ou</w>", 1256], ["ce", "p", 1257], ["i", "</w>", 1258], ["at", "ur", 1259], ["in", "es</w>", 1260], ["ous", "ly</w>", 1261], ["ght", "ers</w>", 1262], ["stre", "ss</w>", 1263], ["ell", "ow</w>", 1264], ["f", "ur", 1265], ["d", "ow</w>", 1266], ["be", "hold</w>", 1267], ["ful", "ly</w>", 1268], ["gi", "ven</w>", 1269], ["E", "gy", 1270], ["g", "ir", 1271], ["fee", "l</w>", 1272], ["f", "l", 1273], ["spea", "ke</w>", 1274], ["th", "ir", 1275], ["H", "ell</w>", 1276], ["r", "un", 1277], ["th", "s</w>", 1278], ["t", "le</w>", 1279], ["e", "ver", 1280], ["Dash", "wood</w>", 1281], ["L", "u", 1282], ["he", "ere</w>", 1283], ["si", "des</w>", 1284], ["per", "i", 1285], ["ing", "ly</w>", 1286], ["Wi", "ll", 1287], ["m", "arri", 1288], ["b", "ir", 1289], ["o", "thers</w>", 1290], ["li", "ved</w>", 1291], ["dau", "ghters</w>", 1292], ["fa", "v", 1293], ["pra", "y</w>", 1294], ["pow", "er</w>", 1295], ["sha", "lt</w>", 1296], ["sm", "all</w>", 1297], ["E", "d", 1298], ["bor", "n</w>", 1299], ["han", "d", 1300], ["G", "i", 1301], ["S", "ou", 1302], ["Fa", "ther</w>", 1303], ["th", "er", 1304], ["st", "ing</w>", 1305], ["Ham", "let</w>", 1306], ["dea", "l</w>", 1307], ["r", "y", 1308], ["w", "el", 1309], ["O", "p", 1310], ["pre", "s", 1311], ["per", "son</w>", 1312], ["b", "and</w>", 1313], ["f", "low", 1314], ["k", "ee", 1315], ["ob", "ser", 1316], ["p", "l", 1317], ["w", "ea", 1318], ["Y", "et</w>", 1319], ["ll", "ing</w>", 1320], ["fi", "ed</w>", 1321], ["wh", "ether</w>", 1322], ["c", "ted</w>", 1323], ["Qu", "een</w>", 1324], ["cir", "cu", 1325], ["di", "es</w>", 1326], ["be", "th</w>", 1327], ["o", "ver", 1328], ["you", "r", 1329], ["tain", "ly</w>", 1330], ["re", "ally</w>", 1331], ["K", "night", 1332], ["El", "ton</w>", 1333], ["Qu", "ee", 1334], ["Quee", "que", 1335], ["Queeque", "g</w>", 1336], ["en", "d", 1337], ["chan", "ge</w>", 1338], ["H", "ere</w>", 1339], ["f", "lo", 1340], ["e", "li", 1341], ["them", "selves</w>", 1342], ["jo", "y</w>", 1343], ["i", "de", 1344], ["Will", "ough", 1345], ["Willough", "by</w>", 1346], ["L", "ou", 1347], ["A", "l", 1348], ["slee", "p</w>", 1349], ["of", "ten</w>", 1350], ["H", "or</w>", 1351], ["o", "ve</w>", 1352], ["tur", "ned</w>", 1353], ["P", "har", 1354], ["N", "</w>", 1355], ["Char", "les</w>", 1356], ["at", "s</w>", 1357], ["tow", "ards</w>", 1358], ["d", "rin", 1359], ["D", "i", 1360], ["an", "e</w>", 1361], ["er", "i", 1362], ["eng", "th</w>", 1363], ["d", "ence</w>", 1364], ["ci", "ous</w>", 1365], ["in", "v", 1366], ["k", "eep</w>", 1367], ["f", "our</w>", 1368], ["ti", "on", 1369], ["Knight", "ley</w>", 1370], ["si", "r</w>", 1371], ["man", "ner</w>", 1372], ["D", "o", 1373], ["g", "round</w>", 1374], ["W", "est", 1375], ["sur", "pri", 1376], ["pas", "sed</w>", 1377], ["su", "n</w>", 1378], ["M", "us", 1379], ["Mus", "gro", 1380], ["s", "se", 1381], ["d", "ri", 1382], ["ir", "it</w>", 1383], ["ac", "qua", 1384], ["r", "en", 1385], ["retur", "n</w>", 1386], ["pre", "tty</w>", 1387], ["contin", "u", 1388], ["v", "p</w>", 1389], ["oun", "ds</w>", 1390], ["Wi", "ll</w>", 1391], ["ta", "ken</w>", 1392], ["O", "ur</w>", 1393], ["bu", "sin", 1394], ["en", "ded</w>", 1395], ["g", "l", 1396], ["fa", "ir</w>", 1397], ["coun", "try</w>", 1398], ["Phar", "a", 1399], ["Phara", "oh</w>", 1400], ["s", "y</w>", 1401], ["do", "e</w>", 1402], ["P", "er", 1403], ["reas", "on</w>", 1404], ["d", "st</w>", 1405], ["n", "atur", 1406], ["vi", "si", 1407], ["d", "ness</w>", 1408], ["l", "ord</w>", 1409], ["j", "ec", 1410], ["f", "ine</w>", 1411], ["gh", "ty</w>", 1412], ["ea", "th</w>", 1413], ["se", "con", 1414], ["ar", "m</w>", 1415], ["fri", "ends</w>", 1416], ["vi", "l", 1417], ["ad", "m", 1418], ["le", "man</w>", 1419], ["sou", "l</w>", 1420], ["y", "ear</w>", 1421], ["si", "g", 1422], ["The", "se</w>", 1423], ["wal", "k</w>", 1424], ["str", "ong</w>", 1425], ["g", "g", 1426], ["O", "ne</w>", 1427], ["de", "st</w>", 1428], ["S", "he", 1429], ["st", "ance</w>", 1430], ["c", "ity</w>", 1431], ["se", "ven</w>", 1432], ["ob", "li", 1433], ["m", "ean</w>", 1434], ["Y", "our</w>", 1435], ["ow", "ing</w>", 1436], ["plea", "se</w>", 1437], ["foo", "t</w>", 1438], ["in", "ted</w>", 1439], ["se", "ll</w>", 1440], ["so", "l", 1441], ["c", "ea", 1442], ["circu", "m", 1443], ["pp", "ed</w>", 1444], ["mi", "stress</w>", 1445], ["ba", "d</w>", 1446], ["bl", "ood</w>", 1447], ["stran", "ge</w>", 1448], ["f", "ell</w>", 1449], ["di", "sp", 1450], ["Y", "es</w>", 1451], ["H", "or", 1452], ["ent", "y</w>", 1453], ["do", "m</w>", 1454], ["pla", "y</w>", 1455], ["ing", "ing</w>", 1456], ["st", "e", 1457], ["cer", "tainly</w>", 1458], ["your", "self</w>", 1459], ["sp", "ect</w>", 1460], ["Cassi", "us</w>", 1461], ["t", "ou", 1462], ["B", "o", 1463], ["hi", "gh", 1464], ["D", "e", 1465], ["im", "medi", 1466], ["fa", "st</w>", 1467], ["st", "ro", 1468], ["r", "an</w>", 1469], ["ac", "coun", 1470], ["hu", "s", 1471], ["att", "le</w>", 1472], ["u", "sed</w>", 1473], ["a", "w", 1474], ["re", "ma", 1475], ["The", "ir</w>", 1476], ["vi", "sit</w>", 1477], ["C", "an", 1478], ["thou", "ghts</w>", 1479], ["a", "gre", 1480], ["F", "ran", 1481], ["sc", "re", 1482], ["cu", "ri", 1483], ["e", "ty</w>", 1484], ["gar", "den</w>", 1485], ["ar", "i", 1486], ["tur", "n</w>", 1487], ["c", "ra", 1488], ["t", "is</w>", 1489], ["war", "ds</w>", 1490], ["le", "dge</w>", 1491], ["ad", "ded</w>", 1492], ["TH", "E</w>", 1493], ["o", "pp", 1494], ["la", "dy</w>", 1495], ["ab", "ly</w>", 1496], ["sen", "se</w>", 1497], ["an", "ything</w>", 1498], ["Wal", "ter</w>", 1499], ["An", "t", 1500], ["ea", "ce</w>", 1501], ["th", "r", 1502], ["en", "ti", 1503], ["po", "se</w>", 1504], ["li", "sh</w>", 1505], ["n", "ers</w>", 1506], ["Egy", "pt</w>", 1507], ["as", "ked</w>", 1508], ["f", "an", 1509], ["lou", "e</w>", 1510], ["secon", "d</w>", 1511], ["me", "et</w>", 1512], ["plea", "sure</w>", 1513], ["r", "ying</w>", 1514], ["li", "k", 1515], ["T", "ur", 1516], ["our", "ed</w>", 1517], ["l", "led</w>", 1518], ["l", "in</w>", 1519], ["ide", "a</w>", 1520], ["h", "ou", 1521], ["co", "ld</w>", 1522], ["gla", "d</w>", 1523], ["f", "ear</w>", 1524], ["won", "der</w>", 1525], ["le", "st</w>", 1526], ["clo", "se</w>", 1527], ["N", "or", 1528], ["c", "arri", 1529], ["oo", "l</w>", 1530], ["f", "f</w>", 1531], ["ac", "</w>", 1532], ["n", "al</w>", 1533], ["hear", "e</w>", 1534], ["ne", "e", 1535], ["ne", "sse</w>", 1536], ["comm", "on</w>", 1537], ["m", "ing</w>", 1538], ["sh", "ou", 1539], ["lo", "st</w>", 1540], ["sp", "ee", 1541], ["op", "ini", 1542], ["F", "i", 1543], ["su", "f", 1544], ["x", "i", 1545], ["st", "ar", 1546], ["c", "lu", 1547], ["a", "g", 1548], ["s", "and</w>", 1549], ["li", "es</w>", 1550], ["b", "en", 1551], ["de", "sc", 1552], ["an", "s</w>", 1553], ["sh", "es</w>", 1554], ["di", "sa", 1555], ["col", "le", 1556], ["gener", "al</w>", 1557], ["West", "on</w>", 1558], ["M", "e", 1559], ["reme", "mber</w>", 1560], ["c", "ri", 1561], ["d", "ent</w>", 1562], ["s", "sing</w>", 1563], ["W", "ood", 1564], ["har", "dly</w>", 1565], ["fe", "et</w>", 1566], ["ti", "ve</w>", 1567], ["Isa", "ac</w>", 1568], ["busin", "ess</w>", 1569], ["wha", "le</w>", 1570], ["h", "ard</w>", 1571], ["Ex", "e", 1572], ["H", "e", 1573], ["p", "or", 1574], ["ra", "id</w>", 1575], ["ir", "s</w>", 1576], ["in", "ing</w>", 1577], ["hus", "band</w>", 1578], ["m", "oun", 1579], ["U", "n", 1580], ["E", "sa", 1581], ["Esa", "u</w>", 1582], ["feel", "ings</w>", 1583], ["F", "ri", 1584], ["gi", "ue</w>", 1585], ["an", "g", 1586], ["mou", "th</w>", 1587], ["ow", "ne</w>", 1588], ["N", "ight</w>", 1589], ["mor", "row</w>", 1590], ["Th", "y</w>", 1591], ["al", "ong</w>", 1592], ["t", "wi", 1593], ["he", "ld</w>", 1594], ["fa", "i", 1595], ["p", "ed</w>", 1596], ["e", "f", 1597], ["c", "ing</w>", 1598], ["r", "on", 1599], ["it", "self</w>", 1600], ["bre", "thre", 1601], ["brethre", "n</w>", 1602], ["h", "our</w>", 1603], ["Fran", "k", 1604], ["u", "res</w>", 1605], ["e", "ts</w>", 1606], ["Exe", "unt</w>", 1607], ["Ant", "ony</w>", 1608], ["B", "an", 1609], ["di", "spo", 1610], ["st", "ay</w>", 1611], ["af", "ter", 1612], ["p", "es</w>", 1613], ["mu", "l", 1614], ["li", "st", 1615], ["al", "s</w>", 1616], ["sh", "ort</w>", 1617], ["b", "are</w>", 1618], ["co", "t", 1619], ["su", "dd", 1620], ["Frank", "lin</w>", 1621], ["B", "e</w>", 1622], ["do", "th</w>", 1623], ["aga", "ine</w>", 1624], ["thin", "ke</w>", 1625], ["c", "en", 1626], ["questi", "on</w>", 1627], ["n", "y</w>", 1628], ["en", "ga", 1629], ["ta", "ste</w>", 1630], ["lou", "d</w>", 1631], ["un", "i", 1632], ["app", "ro", 1633], ["cer", "tain</w>", 1634], ["t", "one</w>", 1635], ["Wood", "house</w>", 1636], ["d", "le</w>", 1637], ["t", "rou", 1638], ["f", "eare</w>", 1639], ["Sha", "ll</w>", 1640], ["st", "ate</w>", 1641], ["y", "ond</w>", 1642], ["b", "li", 1643], ["ma", "king</w>", 1644], ["c", "ked</w>", 1645], ["ima", "g", 1646], ["En", "g", 1647], ["di", "ed</w>", 1648], ["po", "sse", 1649], ["der", "ing</w>", 1650], ["af", "raid</w>", 1651], ["hel", "p</w>", 1652], ["plea", "sed</w>", 1653], ["T", "ER</w>", 1654], ["H", "on", 1655], ["gh", "b", 1656], ["spo", "ke</w>", 1657], ["f", "ellow</w>", 1658], ["di", "e</w>", 1659], ["E", "ar", 1660], ["t", "ch</w>", 1661], ["l", "th</w>", 1662], ["wi", "se</w>", 1663], ["l", "li", 1664], ["b", "ri", 1665], ["be", "h", 1666], ["D", "u", 1667], ["lon", "ger</w>", 1668], ["see", "ing</w>", 1669], ["dar", "k</w>", 1670], ["v", "ely</w>", 1671], ["si", "sters</w>", 1672], ["O", "U", 1673], ["supp", "ose</w>", 1674], ["st", "er", 1675], ["u", "er</w>", 1676], ["be", "come</w>", 1677], ["C", "h", 1678], ["for", "med</w>", 1679], ["par", "ty</w>", 1680], ["Th", "us</w>", 1681], ["c", "are</w>", 1682], ["be", "yond</w>", 1683], ["b", "oo", 1684], ["st", "or", 1685], ["plea", "s", 1686], ["ser", "v", 1687], ["e", "f</w>", 1688], ["C", "HA", 1689], ["ne", "y</w>", 1690], ["k", "i", 1691], ["s", "wi", 1692], ["re", "ly</w>", 1693], ["differ", "ent</w>", 1694], ["T", "a", 1695], ["d", "are</w>", 1696], ["en", "ts</w>", 1697], ["sp", "ake</w>", 1698], ["answ", "ered</w>", 1699], ["u", "ght</w>", 1700], ["su", "mm", 1701], ["f", "ru", 1702], ["f", "ect</w>", 1703], ["dee", "p</w>", 1704], ["pla", "in</w>", 1705], ["in", "ess</w>", 1706], ["ta", "l</w>", 1707], ["har", "po", 1708], ["L", "ea", 1709], ["W", "or", 1710], ["it", "u", 1711], ["ent", "ed</w>", 1712], ["g", "er", 1713], ["en", "ing</w>", 1714], ["P", "ar", 1715], ["mi", "ghty</w>", 1716], ["g", "n", 1717], ["a", "ch</w>", 1718], ["in", "du", 1719], ["comp", "ani", 1720], ["u", "su", 1721], ["ab", "ove</w>", 1722], ["fi", "ve</w>", 1723], ["ser", "van", 1724], ["servan", "ts</w>", 1725], ["ir", "ed</w>", 1726], ["equ", "al</w>", 1727], ["ad", "van", 1728], ["nei", "ghb", 1729], ["tal", "k</w>", 1730], ["S", "e", 1731], ["pro", "mi", 1732], ["sa", "ge</w>", 1733], ["pa", "st</w>", 1734], ["c", "king</w>", 1735], ["A", "b", 1736], ["b", "ly</w>", 1737], ["s", "in</w>", 1738], ["f", "lu", 1739], ["re", "pe", 1740], ["ma", "ster</w>", 1741], ["co", "ver", 1742], ["w", "on</w>", 1743], ["gent", "leman</w>", 1744], ["La", "wr", 1745], ["Lawr", "ence</w>", 1746], ["No", "ble</w>", 1747], ["f", "ree</w>", 1748], ["b", "right</w>", 1749], ["some", "times</w>", 1750], ["sh", "ing</w>", 1751], ["le", "ar", 1752], ["st", "ory</w>", 1753], ["t", "ran", 1754], ["beg", "at</w>", 1755], ["x", "ed</w>", 1756], ["re", "al</w>", 1757], ["gir", "l</w>", 1758], ["t", "ers</w>", 1759], ["foll", "ow</w>", 1760], ["gra", "ce</w>", 1761], ["dow", "ne</w>", 1762], ["for", "m</w>", 1763], ["f", "ter</w>", 1764], ["at", "ter</w>", 1765], ["e", "ene</w>", 1766], ["i", "m</w>", 1767], ["M", "es", 1768], ["wo", "men</w>", 1769], ["B", "a", 1770], ["ma", "kes</w>", 1771], ["de", "ser", 1772], ["s", "li", 1773], ["in", "ning</w>", 1774], ["k", "ey</w>", 1775], ["tt", "en</w>", 1776], ["de", "light</w>", 1777], ["beh", "ind</w>", 1778], ["t", "ree</w>", 1779], ["re", "mo", 1780], ["ow", "s</w>", 1781], ["ti", "ful</w>", 1782], ["va", "in</w>", 1783], ["ar", "ms</w>", 1784], ["wan", "ted</w>", 1785], ["l", "er</w>", 1786], ["p", "it", 1787], ["G", "ra", 1788], ["G", "ood</w>", 1789], ["hu", "m", 1790], ["Ear", "th</w>", 1791], ["po", "int</w>", 1792], ["ll", "s</w>", 1793], ["se", "cre", 1794], ["nei", "ther</w>", 1795], ["W", "ho", 1796], ["thou", "sand</w>", 1797], ["po", "ssible</w>", 1798], ["k", "er</w>", 1799], ["L", "ab", 1800], ["der", "ed</w>", 1801], ["o", "si", 1802], ["whi", "te</w>", 1803], ["f", "ra", 1804], ["s", "un", 1805], ["Be", "hold</w>", 1806], ["be", "ar</w>", 1807], ["appear", "ed</w>", 1808], ["w", "s</w>", 1809], ["le", "tter</w>", 1810], ["d", "n</w>", 1811], ["wor", "se</w>", 1812], ["wh", "ere", 1813], ["M", "an</w>", 1814], ["an", "ds</w>", 1815], ["en", "s</w>", 1816], ["z", "z", 1817], ["th", "ine</w>", 1818], ["i", "es</w>", 1819], ["sil", "ent</w>", 1820], ["immedi", "ately</w>", 1821], ["re", "qu", 1822], ["exc", "ell", 1823], ["you", "th</w>", 1824], ["comp", "le", 1825], ["know", "ledge</w>", 1826], ["ex", "ce", 1827], ["per", "fec", 1828], ["H", "en", 1829], ["li", "ving</w>", 1830], ["go", "ld</w>", 1831], ["serv", "ant</w>", 1832], ["CHA", "P", 1833], ["CHAP", "TER</w>", 1834], ["at", "ures</w>", 1835], ["t", "ation</w>", 1836], ["s", "on", 1837], ["L", "e", 1838], ["S", "i", 1839], ["th", "an", 1840], ["I", "N", 1841], ["s", "ation</w>", 1842], ["feel", "ing</w>", 1843], ["fortun", "e</w>", 1844], ["Ed", "ward</w>", 1845], ["con", "ver", 1846], ["acqua", "int", 1847], ["F", "eli", 1848], ["Feli", "x</w>", 1849], ["El", "li", 1850], ["di", "sc", 1851], ["Su", "ch</w>", 1852], ["A", "re</w>", 1853], ["y", "n", 1854], ["spi", "rits</w>", 1855], ["se", "qu", 1856], ["so", "lu", 1857], ["tw", "enty</w>", 1858], ["in", "ts</w>", 1859], ["p", "rou", 1860], ["N", "ature</w>", 1861], ["su", "c", 1862], ["r", "ance</w>", 1863], ["Qu", "</w>", 1864], ["z", "ed</w>", 1865], ["accoun", "t</w>", 1866], ["la", "w</w>", 1867], ["ea", "ble</w>", 1868], ["con", "s", 1869], ["retur", "ned</w>", 1870], ["tal", "king</w>", 1871], ["ar", "ound</w>", 1872], ["cro", "ss</w>", 1873], ["A", "N", 1874], ["Elli", "ot</w>", 1875], ["J", "on", 1876], ["P", "ri", 1877], ["mb", "</w>", 1878], ["T", "is</w>", 1879], ["me", "e", 1880], ["C", "or", 1881], ["G", "re", 1882], ["ec", "u", 1883], ["dre", "ad", 1884], ["go", "es</w>", 1885], ["n", "ature</w>", 1886], ["S", "er", 1887], ["gr", "ow</w>", 1888], ["ri", "se</w>", 1889], ["ru", "p", 1890], ["P", "ol", 1891], ["it", "ing</w>", 1892], ["n", "or", 1893], ["sh", "o", 1894], ["do", "ing</w>", 1895], ["so", "ci", 1896], ["m", "ea", 1897], ["se", "ed</w>", 1898], ["evi", "l</w>", 1899], ["ph", "on</w>", 1900], ["emp", "lo", 1901], ["acquaint", "ance</w>", 1902], ["Jon", "ah</w>", 1903], ["P", "ro", 1904], ["eu", "er</w>", 1905], ["pp", "ing</w>", 1906], ["d", "g", 1907], ["fi", "c", 1908], ["m", "ur", 1909], ["qu", "ar", 1910], ["cul", "ar</w>", 1911], ["t", "ent</w>", 1912], ["for", "e", 1913], ["La", "er</w>", 1914], ["ex", "pre", 1915], ["or", "t", 1916], ["con", "cer", 1917], ["ma", "id</w>", 1918], ["per", "fect</w>", 1919], ["Mac", "beth</w>", 1920], ["hea", "ven</w>", 1921], ["c", "attle</w>", 1922], ["b", "ook</w>", 1923], ["char", "ac", 1924], ["re", "mar", 1925], ["hand", "some</w>", 1926], ["sub", "ject</w>", 1927], ["M", "u", 1928], ["dire", "c", 1929], ["es", "se</w>", 1930], ["tow", "ard</w>", 1931], ["D", "id</w>", 1932], ["sil", "ence</w>", 1933], ["opini", "on</w>", 1934], ["comp", "any</w>", 1935], ["comfor", "t</w>", 1936], ["i", "le</w>", 1937], ["de", "c", 1938], ["re", "g", 1939], ["ro", "se</w>", 1940], ["s", "ch", 1941], ["S", "ar", 1942], ["ta", "king</w>", 1943], ["ca", "l</w>", 1944], ["or", "m", 1945], ["wi", "ld</w>", 1946], ["re", "spec", 1947], ["y", "l", 1948], ["win", "dow</w>", 1949], ["Abra", "m</w>", 1950], ["Musgro", "ve</w>", 1951], ["Tur", "tle</w>", 1952], ["le", "sse</w>", 1953], ["lea", "ue</w>", 1954], ["b", "loo", 1955], ["C", "ha", 1956], ["f", "it</w>", 1957], ["at", "temp", 1958], ["ll", "a</w>", 1959], ["ex", "ac", 1960], ["ke", "pt</w>", 1961], ["dre", "am</w>", 1962], ["I", "s", 1963], ["spec", "i", 1964], ["Mac", "d</w>", 1965], ["te", "en</w>", 1966], ["con", "v", 1967], ["se", "ver", 1968], ["b", "er</w>", 1969], ["p", "eace</w>", 1970], ["sh", "ew</w>", 1971], ["brea", "th</w>", 1972], ["gh", "ted</w>", 1973], ["tru", "th</w>", 1974], ["ong", "s</w>", 1975], ["s", "ound</w>", 1976], ["wr", "ong</w>", 1977], ["c", "row", 1978], ["sc", "ar", 1979], ["al", "low", 1980], ["th", "ence</w>", 1981], ["oc", "ca", 1982], ["re", "si", 1983], ["sh", "ar", 1984], ["pleas", "ant</w>", 1985], ["w", "oo", 1986], ["lau", "gh", 1987], ["en", "ess</w>", 1988], ["gu", "ine", 1989], ["la", "dies</w>", 1990], ["charac", "ter</w>", 1991], ["ra", "ble</w>", 1992], ["thin", "king</w>", 1993], ["of", "fer", 1994], ["ho", "l", 1995], ["s", "end</w>", 1996], ["b", "id</w>", 1997], ["c", "le</w>", 1998], ["after", "wards</w>", 1999], ["Th", "ough</w>", 2000], ["ge", "l</w>", 2001], ["p", "lan", 2002], ["F", "</w>", 2003], ["C", "ol", 2004], ["Op", "he</w>", 2005], ["sa", "il", 2006], ["de", "ci", 2007], ["gre", "en</w>", 2008], ["fin", "i", 2009], ["v", "y</w>", 2010], ["usu", "al</w>", 2011], ["ti", "c</w>", 2012], ["perfec", "tly</w>", 2013], ["cot", "tage</w>", 2014], ["Mar", "t", 2015], ["Mo", "ck</w>", 2016], ["ea", "st</w>", 2017], ["as", "k", 2018], ["a", "st</w>", 2019], ["V", "n", 2020], ["see", "m</w>", 2021], ["w", "e", 2022], ["no", "ti", 2023], ["marri", "ed</w>", 2024], ["ca", "se</w>", 2025], ["R", "us", 2026], ["fle", "sh</w>", 2027], ["vil", "la", 2028], ["t", "ure</w>", 2029], ["bla", "ck</w>", 2030], ["continu", "ed</w>", 2031], ["wal", "ked</w>", 2032], ["j", "our", 2033], ["for", "d</w>", 2034], ["pa", "in</w>", 2035], ["mean", "s</w>", 2036], ["bo", "ard</w>", 2037], ["dif", "fi", 2038], ["obli", "ged</w>", 2039], ["Isa", "be", 2040], ["Isabe", "lla</w>", 2041], ["H", "atter</w>", 2042], ["G", "ry", 2043], ["Gry", "phon</w>", 2044], ["exp", "ec", 2045], ["gr", "at", 2046], ["c", "ee", 2047], ["ne", "ed</w>", 2048], ["wel", "come</w>", 2049], ["stan", "ding</w>", 2050], ["as", "h</w>", 2051], ["p", "ay</w>", 2052], ["it", "ted</w>", 2053], ["so", "li", 2054], ["pu", "l", 2055], ["en", "ly</w>", 2056], ["mi", "l", 2057], ["ou", "ri", 2058], ["inter", "est</w>", 2059], ["ble", "ssed</w>", 2060], ["tu", "al</w>", 2061], ["Can", "a", 2062], ["under", "stand</w>", 2063], ["Lab", "an</w>", 2064], ["Rus", "sell</w>", 2065], ["i", "us</w>", 2066], ["of", "t</w>", 2067], ["ong", "ue</w>", 2068], ["ru", "n</w>", 2069], ["loo", "ke</w>", 2070], ["shou", "l", 2071], ["n", "am", 2072], ["great", "er</w>", 2073], ["Hea", "uen</w>", 2074], ["be", "sides</w>", 2075], ["hi", "ther</w>", 2076], ["st", "ant</w>", 2077], ["reg", "ard</w>", 2078], ["pra", "ise</w>", 2079], ["ro", "o", 2080], ["sor", "ry</w>", 2081], ["ho", "st</w>", 2082], ["g", "ate</w>", 2083], ["ou", "t", 2084], ["re", "ig", 2085], ["vi", "ce</w>", 2086], ["f", "ol", 2087], ["C", "ro", 2088], ["ge", "tting</w>", 2089], ["te", "ly</w>", 2090], ["wat", "ers</w>", 2091], ["on", "ed</w>", 2092], ["ha", "ir</w>", 2093], ["t", "own</w>", 2094], ["N", "ay</w>", 2095], ["dd", "le</w>", 2096], ["k", "ne", 2097], ["ten", "ance</w>", 2098], ["mar", "ry</w>", 2099], ["n", "es</w>", 2100], ["de", "gre", 2101], ["desi", "re</w>", 2102], ["S", "mi", 2103], ["at", "ch</w>", 2104], ["ne", "ce", 2105], ["satis", "fied</w>", 2106], ["A", "fter</w>", 2107], ["S", "a", 2108], ["hi", "ll</w>", 2109], ["to", "p</w>", 2110], ["excell", "ent</w>", 2111], ["on", "e", 2112], ["si", "tting</w>", 2113], ["brea", "d</w>", 2114], ["B", "il", 2115], ["lea", "ves</w>", 2116], ["J", "u", 2117], ["beau", "tiful</w>", 2118], ["mi", "ra", 2119], ["seem", "s</w>", 2120], ["che", "er", 2121], ["comfor", "table</w>", 2122], ["Mar", "ch</w>", 2123], ["S", "h", 2124], ["a", "mi", 2125], ["m", "et</w>", 2126], ["z", "</w>", 2127], ["pur", "pose</w>", 2128], ["con", "sequ", 2129], ["ei", "ght</w>", 2130], ["b", "s</w>", 2131], ["s", "mo", 2132], ["sa", "ke</w>", 2133], ["t", "ried</w>", 2134], ["cou", "ra", 2135], ["o", "be", 2136], ["b", "it", 2137], ["minu", "tes</w>", 2138], ["sh", "ow</w>", 2139], ["comm", "and</w>", 2140], ["de", "sp", 2141], ["disa", "pp", 2142], ["for", "ward</w>", 2143], ["mul", "ti", 2144], ["y", "ment</w>", 2145], ["h", "ood</w>", 2146], ["p", "rin", 2147], ["ra", "i", 2148], ["lo", "ved</w>", 2149], ["du", "ced</w>", 2150], ["wi", "shed</w>", 2151], ["re", "colle", 2152], ["atten", "tion</w>", 2153], ["lan", "d", 2154], ["an", "y", 2155], ["natur", "al</w>", 2156], ["Mart", "in</w>", 2157], ["sa", "fe</w>", 2158], ["vi", "ew</w>", 2159], ["tou", "ch</w>", 2160], ["or", "der</w>", 2161], ["p", "assi", 2162], ["fur", "ther</w>", 2163], ["c", "ry</w>", 2164], ["ti", "e</w>", 2165], ["oo", "ke</w>", 2166], ["hea", "ds</w>", 2167], ["s", "la", 2168], ["sen", "si", 2169], ["rou", "s</w>", 2170], ["So", "me</w>", 2171], ["Lu", "ci", 2172], ["vo", "y", 2173], ["re", "fu", 2174], ["dre", "am", 2175], ["wha", "t", 2176], ["as", "sure</w>", 2177], ["parti", "cular</w>", 2178], ["de", "pen", 2179], ["L", "</w>", 2180], ["in", "ation</w>", 2181], ["su", "l", 2182], ["pur", "su", 2183], ["com", "man", 2184], ["lik", "ely</w>", 2185], ["ma", "le</w>", 2186], ["man", "ners</w>", 2187], ["pi", "ll", 2188], ["op", "ened</w>", 2189], ["ju", "sti", 2190], ["v", "ine</w>", 2191], ["li", "ue</w>", 2192], ["eu", "ery</w>", 2193], ["y", "le</w>", 2194], ["gent", "le</w>", 2195], ["temp", "er</w>", 2196], ["oun", "ded</w>", 2197], ["ea", "si", 2198], ["T", "ill</w>", 2199], ["smi", "le</w>", 2200], ["ea", "se</w>", 2201], ["en", "n", 2202], ["H", "ear", 2203], ["k", "no", 2204], ["be", "l", 2205], ["si", "x", 2206], ["imp", "o", 2207], ["af", "f", 2208], ["spee", "ch</w>", 2209], ["de", "ter", 2210], ["mp", "le</w>", 2211], ["ck", "et</w>", 2212], ["dra", "w</w>", 2213], ["Whi", "le</w>", 2214], ["O", "F</w>", 2215], ["Po", "l</w>", 2216], ["A", "h</w>", 2217], ["ne", "ck</w>", 2218], ["Ro", "sse</w>", 2219], ["se", "tt", 2220], ["b", "al", 2221], ["m", "p</w>", 2222], ["per", "su", 2223], ["sa", "ys</w>", 2224], ["din", "ner</w>", 2225], ["O", "N", 2226], ["conver", "sation</w>", 2227], ["att", "ach", 2228], ["Har", "t", 2229], ["Hart", "field</w>", 2230], ["Go", "ds</w>", 2231], ["G", "o</w>", 2232], ["C", "oun", 2233], ["An", "t</w>", 2234], ["C", "an</w>", 2235], ["G", "u", 2236], ["wi", "de</w>", 2237], ["sp", "irit</w>", 2238], ["so", "ft</w>", 2239], ["wa", "it</w>", 2240], ["S", "pi", 2241], ["wa", "ke</w>", 2242], ["fre", "sh</w>", 2243], ["re", "h", 2244], ["bur", "y</w>", 2245], ["ro", "ad</w>", 2246], ["m", "n</w>", 2247], ["beg", "inning</w>", 2248], ["tur", "ning</w>", 2249], ["exac", "tly</w>", 2250], ["l", "ength</w>", 2251], ["he", "l</w>", 2252], ["sp", "ring</w>", 2253], ["li", "e</w>", 2254], ["a", "de</w>", 2255], ["ci", "ent</w>", 2256], ["i", "med</w>", 2257], ["stea", "d</w>", 2258], ["cover", "ed</w>", 2259], ["E", "li", 2260], ["ser", "ve</w>", 2261], ["sh", "ore</w>", 2262], ["gi", "ving</w>", 2263], ["recei", "ved</w>", 2264], ["mor", "tal</w>", 2265], ["s", "ong</w>", 2266], ["sk", "y</w>", 2267], ["happ", "iness</w>", 2268], ["ever", "ything</w>", 2269], ["itu", "de</w>", 2270], ["ear", "es</w>", 2271], ["S", "ee</w>", 2272], ["M", "an", 2273], ["differ", "ence</w>", 2274], ["P", "al", 2275], ["or", "n</w>", 2276], ["ha", "</w>", 2277], ["al", "ready</w>", 2278], ["e", "ce</w>", 2279], ["R", "eu", 2280], ["hon", "our</w>", 2281], ["ri", "ch</w>", 2282], ["i", "ly</w>", 2283], ["M", "other</w>", 2284], ["No", "thing</w>", 2285], ["d", "am", 2286], ["g", "rie", 2287], ["th", "ere", 2288], ["Eng", "land</w>", 2289], ["O", "n", 2290], ["ri", "es</w>", 2291], ["lan", "ds</w>", 2292], ["yn", "ch</w>", 2293], ["scre", "w</w>", 2294], ["R", "ab", 2295], ["po", "li", 2296], ["h", "ours</w>", 2297], ["villa", "ge</w>", 2298], ["K", "ell", 2299], ["T", "ra", 2300], ["T", "ru", 2301], ["pro", "per</w>", 2302], ["c", "ru", 2303], ["c", "li", 2304], ["M", "ay</w>", 2305], ["bor", "ne</w>", 2306], ["wor", "thy</w>", 2307], ["he", "e</w>", 2308], ["w", "re", 2309], ["Gi", "ue</w>", 2310], ["re", "ad", 2311], ["g", "li", 2312], ["r", "own</w>", 2313], ["k", "ill</w>", 2314], ["fi", "f", 2315], ["fre", "t</w>", 2316], ["di", "tion</w>", 2317], ["satis", "fac", 2318], ["in", "ten", 2319], ["B", "en", 2320], ["b", "ow", 2321], ["tt", "ers</w>", 2322], ["sor", "row</w>", 2323], ["char", "ge</w>", 2324], ["b", "ound</w>", 2325], ["si", "tion</w>", 2326], ["vi", "ol", 2327], ["coun", "tenance</w>", 2328], ["mean", "ing</w>", 2329], ["Ch", "ri", 2330], ["de", "stro", 2331], ["drin", "k</w>", 2332], ["l", "o</w>", 2333], ["in", "ti", 2334], ["si", "x</w>", 2335], ["i", "led</w>", 2336], ["cei", "ved</w>", 2337], ["summ", "er</w>", 2338], ["gu", "l", 2339], ["su", "peri", 2340], ["ver", "s</w>", 2341], ["mira", "l</w>", 2342], ["en", "jo", 2343], ["d", "ance</w>", 2344], ["Smi", "th</w>", 2345], ["Kell", "ynch</w>", 2346], ["tt", "a</w>", 2347], ["t", "in", 2348], ["sh", "ew", 2349], ["s", "ing", 2350], ["Li", "ke</w>", 2351], ["W", "ould</w>", 2352], ["a", "p", 2353], ["dar", "k", 2354], ["ma", "d</w>", 2355], ["f", "ond</w>", 2356], ["d", "well</w>", 2357], ["c", "ti", 2358], ["pro", "b", 2359], ["minu", "te</w>", 2360], ["me", "ant</w>", 2361], ["Hi", "gh", 2362], ["ta", "ins</w>", 2363], ["R", "ac", 2364], ["Bar", "bar", 2365], ["z", "a", 2366], ["em", "s</w>", 2367], ["cu", "lar", 2368], ["fi", "sh</w>", 2369], ["tal", "ked</w>", 2370], ["w", "ar</w>", 2371], ["ven", "i", 2372], ["v", "el", 2373], ["t", "ears</w>", 2374], ["v", "al</w>", 2375], ["imp", "ro", 2376], ["con", "ne", 2377], ["Rab", "bit</w>", 2378], ["A", "c", 2379], ["y", "re</w>", 2380], ["Sp", "irit</w>", 2381], ["sel", "ues</w>", 2382], ["lau", "gh</w>", 2383], ["cor", "ding</w>", 2384], ["se", "at</w>", 2385], ["Spi", "rits</w>", 2386], ["str", "ength</w>", 2387], ["ab", "i", 2388], ["secre", "t</w>", 2389], ["s", "ses</w>", 2390], ["le", "men</w>", 2391], ["hea", "lth</w>", 2392], ["Ha", "d</w>", 2393], ["ch", "ance</w>", 2394], ["draw", "ing</w>", 2395], ["tu", "de</w>", 2396], ["B", "ran", 2397], ["app", "ear</w>", 2398], ["A", "R", 2399], ["adm", "ir", 2400], ["exc", "la", 2401], ["N", "ew</w>", 2402], ["imp", "ort", 2403], ["d", "ue</w>", 2404], ["dre", "w</w>", 2405], ["st", "le</w>", 2406], ["mb", "ling</w>", 2407], ["gra", "ss</w>", 2408], ["Cana", "an</w>", 2409], ["P", "ele", 2410], ["Pele", "g</w>", 2411], ["ser", "ved</w>", 2412], ["Rac", "hel</w>", 2413], ["wee", "k</w>", 2414], ["p", "her", 2415], ["v", "ent</w>", 2416], ["curi", "ous</w>", 2417], ["L", "E</w>", 2418], ["repe", "ated</w>", 2419], ["Po", "m", 2420], ["Pom", "fret</w>", 2421], ["k", "screw</w>", 2422], ["harpo", "one", 2423], ["be", "are</w>", 2424], ["Fri", "ends</w>", 2425], ["st", "ly</w>", 2426], ["an", "d", 2427], ["P", "e", 2428], ["pa", "le</w>", 2429], ["W", "as</w>", 2430], ["Ex", "it</w>", 2431], ["L", "y", 2432], ["u", "p", 2433], ["wal", "king</w>", 2434], ["P", "re", 2435], ["P", "ow", 2436], ["h", "ence</w>", 2437], ["sha", "pe</w>", 2438], ["com", "men", 2439], ["lo", "t</w>", 2440], ["it", "es</w>", 2441], ["p", "ly</w>", 2442], ["en", "ding</w>", 2443], ["l", "ying</w>", 2444], ["wat", "ch</w>", 2445], ["wi", "t", 2446], ["hor", "se</w>", 2447], ["beau", "ty</w>", 2448], ["Ro", "sin</w>", 2449], ["go", "l", 2450], ["ca", "pe</w>", 2451], ["consider", "ed</w>", 2452], ["C", "hur", 2453], ["par", "ted</w>", 2454], ["be", "came</w>", 2455], ["Ad", "am</w>", 2456], ["thir", "ty</w>", 2457], ["sett", "led</w>", 2458], ["parti", "cular", 2459], ["fini", "shed</w>", 2460], ["tre", "es</w>", 2461], ["da", "d</w>", 2462], ["ar", "med</w>", 2463], ["pill", "ar</w>", 2464], ["fi", "xed</w>", 2465], ["sever", "al</w>", 2466], ["inter", "est", 2467], ["Cor", "kscrew</w>", 2468], ["on", "el</w>", 2469], ["Ro", "me</w>", 2470], ["Ha", "ue</w>", 2471], ["spea", "king</w>", 2472], ["F", "ar", 2473], ["ca", "st</w>", 2474], ["ter", "ed</w>", 2475], ["b", "ow</w>", 2476], ["ll", "ow</w>", 2477], ["M", "on", 2478], ["Th", "rough</w>", 2479], ["stan", "ces</w>", 2480], ["for", "get</w>", 2481], ["de", "cl", 2482], ["for", "mer</w>", 2483], ["suc", "ce", 2484], ["tw", "el", 2485], ["Qu", "eene</w>", 2486], ["reme", "mb", 2487], ["c", "ure</w>", 2488], ["in", "cl", 2489], ["w", "ra", 2490], ["o", "d</w>", 2491], ["Is", "ra", 2492], ["Isra", "el</w>", 2493], ["spo", "ken</w>", 2494], ["mi", "sta", 2495], ["cre", "ature</w>", 2496], ["Ban", "qu", 2497], ["sh", "ment</w>", 2498], ["No", "ah</w>", 2499], ["j", "ur", 2500], ["s", "y", 2501], ["hu", "man</w>", 2502], ["loo", "ks</w>", 2503], ["wa", "iting</w>", 2504], ["mi", "les</w>", 2505], ["ani", "m", 2506], ["ob", "ject</w>", 2507], ["p", "ence</w>", 2508], ["Barbar", "a</w>", 2509], ["le", "ton</w>", 2510], ["Hen", "rie", 2511], ["Henrie", "tta</w>", 2512], ["Du", "ch", 2513], ["Duch", "ess</w>", 2514], ["man", "s</w>", 2515], ["fin", "de</w>", 2516], ["n", "ar", 2517], ["S", "on", 2518], ["ne", "uer</w>", 2519], ["est", "er", 2520], ["R", "ea", 2521], ["st", "one</w>", 2522], ["y", "r", 2523], ["beg", "in</w>", 2524], ["suf", "fi", 2525], ["no", "ise</w>", 2526], ["sto", "p</w>", 2527], ["affec", "tion</w>", 2528], ["ati", "o</w>", 2529], ["be", "ha", 2530], ["car", "ry</w>", 2531], ["il", "t</w>", 2532], ["S", "on</w>", 2533], ["sa", "v", 2534], ["hou", "se", 2535], ["mb", "s</w>", 2536], ["cle", "ar</w>", 2537], ["si", "tu", 2538], ["ea", "sy</w>", 2539], ["mu", "si", 2540], ["diffi", "cul", 2541], ["G", "</w>", 2542], ["A", "T</w>", 2543], ["happ", "ened</w>", 2544], ["conv", "in", 2545], ["no", "body</w>", 2546], ["Mi", "dd", 2547], ["Ad", "miral</w>", 2548], ["Lou", "is", 2549], ["Louis", "a</w>", 2550], ["Bil", "dad</w>", 2551], ["H", "o", 2552], ["i", "o", 2553], ["ra", "y</w>", 2554], ["f", "ear", 2555], ["t", "all</w>", 2556], ["g", "ers</w>", 2557], ["th", "es</w>", 2558], ["t", "ched</w>", 2559], ["a", "ma", 2560], ["e", "sti", 2561], ["c", "ut</w>", 2562], ["M", "ur", 2563], ["Li", "ght", 2564], ["wo", "e</w>", 2565], ["ex", "tre", 2566], ["con", "fe", 2567], ["p", "al", 2568], ["est", "y</w>", 2569], ["G", "ent", 2570], ["Who", "se</w>", 2571], ["low", "ly</w>", 2572], ["ac", "t</w>", 2573], ["pro", "per", 2574], ["P", "hi", 2575], ["An", "g", 2576], ["gl", "ory</w>", 2577], ["I", "S</w>", 2578], ["Hor", "atio</w>", 2579], ["ea", "l</w>", 2580], ["o", "d", 2581], ["pre", "par", 2582], ["exce", "pt</w>", 2583], ["ci", "p", 2584], ["a", "lity</w>", 2585], ["e", "speci", 2586], ["d", "ry</w>", 2587], ["f", "ood</w>", 2588], ["as", "sur", 2589], ["cons", "ci", 2590], ["n", "ine</w>", 2591], ["M", "al", 2592], ["ell", "s</w>", 2593], ["di", "vi", 2594], ["bir", "ds</w>", 2595], ["co", "at</w>", 2596], ["pp", "er", 2597], ["f", "y</w>", 2598], ["situ", "ation</w>", 2599], ["si", "ve</w>", 2600], ["vo", "i", 2601], ["know", "s</w>", 2602], ["ob", "jec", 2603], ["degre", "e</w>", 2604], ["R", "E", 2605], ["brea", "k", 2606], ["Bran", "don</w>", 2607], ["harpoone", "er</w>", 2608], ["D", "orm", 2609], ["Dorm", "ouse</w>", 2610], ["C", "ar", 2611], ["l", "a</w>", 2612], ["dan", "ger</w>", 2613], ["p", "ati", 2614], ["t", "ongue</w>", 2615], ["Ca", "es</w>", 2616], ["ere", "ly</w>", 2617], ["him", "selfe</w>", 2618], ["r", "ent</w>", 2619], ["you", "rs</w>", 2620], ["N", "a", 2621], ["hon", "est</w>", 2622], ["ac", "cording</w>", 2623], ["O", "c", 2624], ["ne", "w", 2625], ["bo", "ld</w>", 2626], ["m", "ate</w>", 2627], ["C", "hi", 2628], ["consequ", "ence</w>", 2629], ["pi", "ece</w>", 2630], ["m", "el", 2631], ["S", "w", 2632], ["impo", "ssible</w>", 2633], ["Re", "be", 2634], ["sw", "ee", 2635], ["T", "i", 2636], ["sh", "are</w>", 2637], ["for", "ce</w>", 2638], ["deter", "min", 2639], ["mat", "ch</w>", 2640], ["mon", "th</w>", 2641], ["L", "on", 2642], ["c", "ent</w>", 2643], ["re", "l", 2644], ["a", "go</w>", 2645], ["W", "ha", 2646], ["la", "id</w>", 2647], ["pla", "ced</w>", 2648], ["sp", "ent</w>", 2649], ["Banqu", "o</w>", 2650], ["v", "e", 2651], ["ter", "nal</w>", 2652], ["in", "fer", 2653], ["ati", "ve</w>", 2654], ["what", "ever</w>", 2655], ["land", "lord</w>", 2656], ["Y", "OU", 2657], ["Nor", "land</w>", 2658], ["J", "enn", 2659], ["Jenn", "ings</w>", 2660], ["Col", "onel</w>", 2661], ["la", "b", 2662], ["re", "spect</w>", 2663], ["direc", "tly</w>", 2664], ["bu", "t", 2665], ["b", "an", 2666], ["c", "ation</w>", 2667], ["Caes", "ars</w>", 2668], ["C", "ask</w>", 2669], ["r", "ut</w>", 2670], ["Lou", "e</w>", 2671], ["ou", "rable</w>", 2672], ["f", "ing", 2673], ["e", "well</w>", 2674], ["sensi", "ble</w>", 2675], ["wi", "lling</w>", 2676], ["n", "a</w>", 2677], ["el", "ds</w>", 2678], ["whi", "sp", 2679], ["ca", "u", 2680], ["th", "in</w>", 2681], ["it", "ation</w>", 2682], ["Wi", "fe</w>", 2683], ["s", "qu", 2684], ["Ha", "th</w>", 2685], ["con", "clu", 2686], ["di", "ence</w>", 2687], ["f", "led</w>", 2688], ["desc", "ri", 2689], ["ear", "ne", 2690], ["t", "or", 2691], ["S", "at", 2692], ["Pol", "on</w>", 2693], ["re", "ach", 2694], ["gol", "den</w>", 2695], ["ct", "ure</w>", 2696], ["a", "ges</w>", 2697], ["th", "u", 2698], ["pas", "sage</w>", 2699], ["yl", "or</w>", 2700], ["th", "ro", 2701], ["flow", "ers</w>", 2702], ["fan", "cy</w>", 2703], ["g", "lo", 2704], ["d", "w", 2705], ["da", "h</w>", 2706], ["ent", "ered</w>", 2707], ["win", "ter</w>", 2708], ["sh", "e", 2709], ["vent", "ure</w>", 2710], ["s", "k</w>", 2711], ["pher", "d</w>", 2712], ["ver", "se</w>", 2713], ["fre", "qu", 2714], ["ght", "ful</w>", 2715], ["draw", "n</w>", 2716], ["fac", "t</w>", 2717], ["ti", "red</w>", 2718], ["brea", "st</w>", 2719], ["sudd", "enly</w>", 2720], ["pa", "p", 2721], ["excla", "imed</w>", 2722], ["agre", "eable</w>", 2723], ["Pal", "mer</w>", 2724], ["Eli", "za", 2725], ["U", "pper", 2726], ["Upper", "cross</w>", 2727], ["A", "u", 2728], ["po", "ore</w>", 2729], ["gr", "owing</w>", 2730], ["lu", "ck", 2731], ["kee", "pe</w>", 2732], ["oo", "th</w>", 2733], ["B", "rut</w>", 2734], ["wri", "te</w>", 2735], ["consi", "der</w>", 2736], ["Bo", "th</w>", 2737], ["se", "ene</w>", 2738], ["P", "la", 2739], ["g", "est</w>", 2740], ["be", "ar", 2741], ["ri", "ble</w>", 2742], ["B", "ro", 2743], ["r", "or</w>", 2744], ["ow", "es</w>", 2745], ["v", "ol", 2746], ["nece", "ss", 2747], ["M", "ad", 2748], ["stan", "tly</w>", 2749], ["p", "it</w>", 2750], ["li", "ber", 2751], ["fi", "ll</w>", 2752], ["al", "low</w>", 2753], ["foll", "owed</w>", 2754], ["T", "ake</w>", 2755], ["it", "able</w>", 2756], ["qui", "et</w>", 2757], ["mi", "ddle</w>", 2758], ["li", "f", 2759], ["ar", "k</w>", 2760], ["th", "or", 2761], ["r", "ate</w>", 2762], ["especi", "ally</w>", 2763], ["war", "m</w>", 2764], ["marri", "age</w>", 2765], ["in", "ting</w>", 2766], ["v", "ar", 2767], ["see", "k</w>", 2768], ["ce", "ly</w>", 2769], ["Ta", "ylor</w>", 2770], ["sp", "read</w>", 2771], ["chi", "ef</w>", 2772], ["gra", "ve</w>", 2773], ["c", "ent", 2774], ["advan", "tage</w>", 2775], ["neighb", "our", 2776], ["comp", "li", 2777], ["con", "veni", 2778], ["Lon", "don</w>", 2779], ["clo", "ck</w>", 2780], ["hur", "ry</w>", 2781], ["fav", "ouri", 2782], ["A", "L", 2783], ["g", "ement</w>", 2784], ["Bar", "ton</w>", 2785], ["Eliza", "beth</w>", 2786], ["le", "s", 2787], ["W", "HA", 2788], ["V", "pon</w>", 2789], ["r", "on</w>", 2790], ["g", "ue</w>", 2791], ["g", "ar</w>", 2792], ["D", "ec", 2793], ["trou", "ble</w>", 2794], ["ang", "ry</w>", 2795], ["mar", "ke</w>", 2796], ["T", "it", 2797], ["cee", "ded</w>", 2798], ["d", "ur", 2799], ["S", "word</w>", 2800], ["W", "o", 2801], ["suf", "fer", 2802], ["promi", "se</w>", 2803], ["wi", "lt</w>", 2804], ["wi", "l", 2805], ["pp", "er</w>", 2806], ["f", "old</w>", 2807], ["H", "us", 2808], ["e", "t", 2809], ["noti", "ce</w>", 2810], ["so", "f", 2811], ["T", "w", 2812], ["re", "sol", 2813], ["o", "sed</w>", 2814], ["P", "i", 2815], ["ex", "er", 2816], ["for", "ty</w>", 2817], ["me", "ly</w>", 2818], ["carri", "ed</w>", 2819], ["ac", "cep", 2820], ["f", "oun", 2821], ["at", "er", 2822], ["sha", "de</w>", 2823], ["se", "par", 2824], ["Sar", "ah</w>", 2825], ["fav", "our</w>", 2826], ["se", "l</w>", 2827], ["kin", "dness</w>", 2828], ["obser", "ved</w>", 2829], ["di", "vine</w>", 2830], ["oc", "cu", 2831], ["Sat", "an</w>", 2832], ["sudd", "en</w>", 2833], ["surpri", "se</w>", 2834], ["in", "flu", 2835], ["woo", "ds</w>", 2836], ["N", "an", 2837], ["favouri", "te</w>", 2838]]}